[PAD]
[unused1]
[unused2]
[unused3]
[unused4]
[unused5]
[unused6]
[unused7]
[unused8]
[unused9]
[unused10]
[unused11]
[unused12]
[unused13]
[unused14]
[unused15]
[unused16]
[unused17]
[unused18]
[unused19]
[unused20]
[unused21]
[unused22]
[unused23]
[unused24]
[unused25]
[unused26]
[unused27]
[unused28]
[unused29]
[unused30]
[unused31]
[unused32]
[unused33]
[unused34]
[unused35]
[unused36]
[unused37]
[unused38]
[unused39]
[unused40]
[unused41]
[unused42]
[unused43]
[unused44]
[unused45]
[unused46]
[unused47]
[unused48]
[unused49]
[unused50]
[unused51]
[unused52]
[unused53]
[unused54]
[unused55]
[unused56]
[unused57]
[unused58]
[unused59]
[unused60]
[unused61]
[unused62]
[unused63]
[unused64]
[unused65]
[unused66]
[unused67]
[unused68]
[unused69]
[unused70]
[unused71]
[unused72]
[unused73]
[unused74]
[unused75]
[unused76]
[unused77]
[unused78]
[unused79]
[unused80]
[unused81]
[unused82]
[unused83]
[unused84]
[unused85]
[unused86]
[unused87]
[unused88]
[unused89]
[unused90]
[unused91]
[unused92]
[unused93]
[unused94]
[unused95]
[unused96]
[unused97]
[unused98]
[unused99]
[UNK]
[CLS]
[SEP]
[MASK]
ng
ang
na
sa
an
##m
##p
##ng
##na
at
##sa
ga
la
ka
ay
ag
##i
##,
##mga
##ang
li
in
si
on
ong
ar
##ay
##b
it
##t
##k
##ka
##at
##A
##pag
am
##n
al
er
ina
ing
##d
ya
il
##@
-@
##@-@
to
##S
sang
##h
##ma
um
ba
un
##o
##P
en
##si
ala
##M
##Ang
st
##isang
ul
ap
ah
ro
as
##I
ri
##(
##)
es
##K
##s
di
ula
##nag
##B
os
ilang
##*
yon
##ni
##pang
##1
ik
ana
or
ak
ig
ad
aw
##"
##N
##H
is
##T
lo
us
ung
yang
##la
hi
##=
re
##C
ali
##ito
om
##kan
ut
yo
ur
##g
le
##D
##ta
##E
bi
uk
##L
##may
ti
##e
##pam
wa
up
##par
##G
ila
ug
oong
ta
##kat
od
##R
ub
##l
el
##:
indi
##2
han
##mag
ra
ili
im
##bilang
ito
##pina
una
and
ol
em
ab
kat
##hindi
##in
ot
ari
yan
man
##ga
##noong
ek
##Sa
aga
yong
et
##r
pag
uw
op
ma
ati
##pagka
ran
##19
wang
mit
##para
uh
lang
ent
ok
##mula
##w
pap
##li
bang
##a
##'
id
syon
##kasa
##naka
ob
itan
##pa
san
alang
##mat
mp
##J
mang
##re
gang
ant
uli
##pana
ib
pina
##U
ir
##kung
kal
##nito
lak
inat
##kap
00
lik
ed
##up
##c
ano
##nang
##tao
##di
ahil
##iba
ha
he
##it
unang
##pan
uan
do
##upang
##O
ic
og
oy
##F
##kanyang
da
ip
iko
##).
aring
iya
##siya
##ar
ayan
ep
mo
eg
dad
##pro
##V
##ban
ata
ini
##kar
awan
eo
kas
uri
lit
ino
les
##pamam
##mas
tat
##bah
##W
##hang
ulad
awag
##tum
aba
##Pili
##mala
##dahil
##gina
aram
##maa
##kay
hang
##May
ud
##isa
##an
##rin
##nasa
hat
gamit
##Ing
##sina
##ibang
##pinaka
ter
iyang
ilala
##kanilang
siya
##lo
pan
##maka
alan
##kab
lala
##Si
ia
##ika
atay
pa
ika
##din
ling
##;
ago
uro
ita
ban
##3
gay
ulat
bo
##lamang
##dala
##pagpap
##sum
##lum
##ak
nan
te
so
roon
und
asyon
agi
##panah
##Un
sasa
##Ingles
bas
ero
##kah
##maaaring
asa
##San
##kala
ch
uhay
pinas
unit
##In
ulo
##tinat
uo
##niya
agitan
ko
str
##f
##um
inang
anak
mula
##Pilipinas
eng
sod
siyon
##pamamagitan
##kon
ulang
apat
unan
anda
apos
mba
usa
isi
sta
ungsod
res
lan
lat
##pagkaka
##hanggang
wala
##ilang
stad
##kaniyang
po
##po
##Ito
ho
lim
yos
hing
ura
lohi
gawa
##Nag
isa
ahala
eks
ugna
##bahagi
ismo
##de
##man
yal
agong
##naging
##Mar
##bansa
##unang
##ek
##or
##maram
bay
##200
##taong
##saan
law
ato
##mah
##kina
##taga
##Ma
##pak
bing
##al
rani
ikang
uga
unod
##panahon
baba
##Noong
lip
sina
ilangan
sis
##baba
##baga
gan
##pagt
ulong
##dalawang
##sin
ating
lin
##lahat
##loob
uno
##is
ahan
angga
##18
ast
log
##nat
##bu
##walang
io
##ngunit
##kum
##tinatawag
##/
hah
##Rom
##20
ulug
ihan
sti
pi
##4
##Pag
ento
##naman
##pinag
##Y
asi
##of
se
##kom
iging
##ipina
abang
##pangka
##bin
bong
atag
long
##pinakam
##gum
##uri
##bat
eb
##nak
##magka
ama
##pat
##Di
igan
##pin
ikong
##taon
##katulad
tor
per
nap
##da
mer
uwal
aman
ukoy
ian
##imp
anan
##5
##maraming
hin
##sari
alaga
go
##itong
itong
##sila
ac
emb
##panana
aka
pat
bigay
ysa
##Is
rap
##karani
##the
pe
nal
##Es
##ginagamit
##Kri
##lalak
##y
uling
alik
bis
pit
alak
##mali
ayag
##nila
##nagpap
unahing
uc
ara
de
agat
stem
##Ayon
##".
pang
##araw
ene
##mak
onom
##sak
##kam
##Ar
sak
##Hes
##lungsod
ungk
sik
ue
ust
ine
##hali
##pagitan
no
lita
##kasama
uhan
##nam
##pangunahing
##ina
ham
uring
##Pang
##tat
iki
bar
roong
eh
orm
rang
##buhay
##Kap
dala
##anak
ult
yano
unt
dig
ce
##hum
wan
##bum
##pagtat
##dito
uto
##pala
era
ort
##katawan
apon
##es
##pap
##Euro
##An
imog
##buong
lur
##Al
uku
katapos
##Hesus
ensiya
ubuo
##kaya
puan
igit
wal
##ib
undo
##As
aral
##Estad
##gawa
yemb
##6
##Kristi
yari
##babae
ular
uba
##san
##karaniwang
##Z
##Amer
lam
mbawa
lohiya
ci
lika
##karam
##sistem
##Ale
inut
upa
##It
##bagay
##bansang
bol
##:.
eksuwal
rawan
##pags
##pagsasa
litang
awa
ore
sip
hiyon
bab
ver
umang
##pop
laking
##sang
ron
##bayan
##Unid
dag
##Mga
##maging
##mam
##mang
##Ch
##siyang
co
##kasal
##salitang
uka
lek
tong
##wikang
##Hapon
awat
##Mat
##silang
##pangkat
ve
##15
ump
ses
las
ulasyon
##Mari
##pagiging
##Estados
##Unidos
##Ab
##%
tik
##aaral
##pagp
##tulad
ilos
##Sim
alo
ulugan
yembre
##kilala
##kas
##201
ard
##gaya
##mayroong
##ayon
##tungk
##habang
wak
##ser
anggap
ation
est
##ag
bili
##ip
##op
ulan
ist
int
lad
##II
##7
ente
ugnay
dis
qu
bib
inal
##ila
alit
uha
atagpuan
##nakat
##12
##v
aran
ener
##Br
iniwala
##kabilang
liko
##bawat
##sig
ahalaan
igma
ate
000
##Isa
##pum
ikipag
angk
gi
ubalit
##199
dong
ec
##mundo
##nagsi
##estad
##tra
uloy
mper
ungan
wana
##tub
##mil
iba
anong
##Pran
ye
##Ibar
##Mo
##un
##lalaki
##bagong
##dum
##mo
mb
##bago
arian
##Ibarra
lar
##organ
nila
mot
##Ap
##batas
uang
##le
##nagka
##Con
her
##kasaluku
##Pam
ugar
aling
ensi
ilit
##tumut
##kapag
##lalaw
ria
usyon
##gumaga
usi
##isina
igdig
##pangalan
bid
##lugar
##Q
##mata
##Maynila
##pangang
##reli
aya
##Rep
##Maria
ord
ris
duk
lem
onya
##tatlong
##te
rin
##Kast
##Kan
##lalawigan
riya
##inter
tika
##as
##198
##Lungsod
##8
##dam
##esp
##populasyon
##Mon
iti
##ring
atid
##Dahil
bibigay
ugnayan
##and
alam
alya
##ekonom
ayon
##9
##pamp
av
##sarili
##malaking
ego
##lupa
##The
##pagkatapos
##diyos
##bar
ber
##per
wanag
ey
##Gri
##ter
##pagb
##kapang
##min
##nan
ganap
##tagapag
##kaka
ao
edi
##bak
##aklat
ulot
ble
##Espan
ysayan
##16
##nangang
iz
##Kab
##Diyos
##bina
##kin
##pagla
##siglo
ungo
##naglala
##tala
##seksuwal
##ilalim
##Hud
rian
ehong
##mab
apa
akita
,000
##nagp
##estado
##Pina
pek
##nagsasa
##mar
##ap
nati
##kal
andang
##ding
##hala
pino
iber
##karamihan
##kont
##nab
##pun
##laban
##Europa
##nakaka
##sinasa
##nap
th
##10
yay
##17
##Repub
ayo
##pamahalaan
##katang
git
ilangang
uti
##Sina
kay
##Kato
luran
##Griy
##Simba
##gan
isyal
ilagang
##matatagpuan
##halimbawa
mam
##paggamit
##ko
ind
##bi
anta
one
##pakikipag
ern
dam
##mod
ram
##Ag
##partik
lig
utan
land
##asa
kop
likha
##Par
ilan
##dis
##Romano
##res
hel
ikal
##paraan
##Kastila
pin
##sapag
##wika
##St
##Siya
ca
ataas
##Hindi
ilya
##pagk
##14
ado
##sakit
yag
uz
##niyang
##Co
alat
##teo
##Kah
##197
##ini
oto
ukat
ulay
asyong
##sapagkat
uso
##Her
##Timog
hirap
##En
##hay
ibli
##parehong
##Aleman
##paghah
##am
usan
ly
alidad
enti
##Ka
##ant
hen
##sumus
sin
##Ne
##gamit
ador
##nagt
him
##pagkakaroon
##apat
##Jo
sia
arap
walay
end
##hom
##panahong
##Gay
##tina
agdag
inuturing
ayang
stant
nang
##kasaysayan
##bata
##Kristiyano
##Sam
##Le
anging
##hayop
##Pab
##deg
lahat
##komp
##sup
##est
isang
##ab
ck
##Isang
ne
##tubig
mong
ena
##tungkol
##anyo
##194
##hal
agang
##Juan
ugo
##dapat
##Jos
##agham
lawang
##binubuo
##posi
##Pablo
ahayag
##u
##pagd
##So
lay
##pagbab
##higit
ilosop
##kapangyari
##CE
##Asya
mant
##opisyal
##kahulugan
ry
##map
##lang
##rep
##Kat
ea
##dating
asok
##Na
yonal
0.
##Kabilang
##kuw
sil
##Ak
atas
##com
##sistemang
rol
cos
ton
alis
##nina
paka
ril
##Or
##partikular
##pagsa
ser
##Espanya
##sinaunang
##paglala
##At
ulugang
##pant
##sala
vi
##mataas
##La
sing
esa
##Nang
##muling
##subalit
ei
##masa
##nakapag
ral
bibilangan
##Per
##produk
unay
inig
##nagtat
##Car
anah
##Man
wi
##11
##Bibli
##Ro
##kadala
##Mala
##Pro
osto
##hina
itik
##pagkakat
##Lat
##malawak
ultura
anap
bah
son
##13
##Val
##im
aralan
##kinabibilangan
##kahit
kan
etro
##X
##Mag
ingg
##anumang
ure
bansang
##Pilipino
nana
##huling
##Amerik
unta
ipan
sid
##Indi
kap
##dep
##Katoliko
adre
hip
##pamum
##ngayon
ens
##sumusunod
##tag
##siy
rom
##kaw
##pali
##pisi
##sel
unlad
kt
##Tsina
alaking
unin
##Gayun
##Kung
##pook
##Re
zo
##Kristiyan
ulta
##maliit
alin
hiya
laki
##lip
##kasapi
##Isra
mum
yayari
iral
ikita
##ipinang
##no
##gr
##kasalukuyang
aso
##maga
urang
##sek
##Taga
##anim
##bahay
##buw
##lin
lis
##pangkalahat
ct
##Kore
gal
rim
##Griyego
##BC
isip
##tumutukoy
##una
stan
yer
##itinat
##196
sal
inggil
lic
##indi
##to
##st
rik
##natat
##Papa
loob
##puw
##Tinat
atayan
##itinuturing
##isin
uman
##pilosop
hala
##simba
##Maa
##nana
##uma
ural
##pagli
##Imper
imp
##}
awit
##pagkain
dang
ysay
##nitong
##Rus
##katangian
##Bo
ilaga
##timog
##Ika
dor
##big
##eks
##pas
##halos
##kapangyarihan
##larang
##sistema
ugan
luw
litika
##Bibliya
##Italya
ungka
##Ta
##{
bal
##ama
##Pransiya
##Marcos
banghel
umbas
kaka
##Kon
simula
paman
##De
inam
##bagaman
##ori
##itina
##Padre
mantalang
disyon
##pe
##sanhi
##bang
##maba
nar
ster
ahang
agal
##tuw
ugali
##Po
##Bagong
##kapatid
##Bilang
##ginamit
ibig
##Baga
##mad
elo
##malapit
##digma
rit
isyon
lipas
##proses
##tran
##Tipan
rika
##Hudyo
##Mus
##iyon
##se
##pinuno
##makapag
##kakaya
##nagmula
ikilala
##Kasa
##gawain
##wala
win
##kamatayan
##umi
##pangalang
##simula
entong
antaon
##Da
##pre
ormal
ork
siyong
##sub
gamot
pon
##Ara
ge
##Simbahang
hinal
##pagsus
##ebol
##Bar
irang
##ana
##kag
##maaari
raan
##Pala
##relihiyon
##Sal
##Kom
##dugo
##mayroon
##Digma
##kil
##kabu
ada
##nangangah
rong
way
uyo
ismong
nak
itnang
va
tas
tom
bel
##tem
banghelyo
##espes
##ganitong
uda
##tunay
##Hali
##Constant
##Gu
##kali
omo
ulungan
upo
##Gayunpaman
##pres
uni
baw
ros
##kadalasang
##ind
##hin
lohikal
syong
##Dis
tos
##milyong
irahan
##put
##pinang
ental
##indibid
bag
##kaugnayan
gol
stit
##ilan
##nagsa
##.
tili
##rehiyon
##Nor
##salita
##pagbabago
sidad
ht
rat
lurang
uter
##daigdig
##ed
##\
bisyon
##hinggil
wag
NA
art
tion
eneral
##kanluran
##kaysa
##Mas
mon
##mai
alagang
##Lo
##Naka
adala
utub
ugat
iling
baho
##Hilagang
##kulay
##lay
##Cam
##halip
unong
##tin
##del
hiwalay
oryo
ote
##mal
##magkaka
anal
amang
##makab
##kons
##he
##pamilya
##195
##dal
##antas
fer
##ipinanganak
ty
##orihinal
##mamam
##ad
usap
ilitar
##BCE
##epek
labas
are
alatay
##pinakamalaking
##Islam
##Maram
##larangan
##kla
##sumasa
##Jose
lipunan
ulit
##namatay
kolar
##pr
##Luc
##Halimbawa
##nagbibigay
##Roma
##Amerika
umpay
ulin
##Kaharian
gas
##Ehip
##193
tura
ler
ukod
##ber
utas
iyak
##Li
##New
##asawa
##pati
##ekonomiya
##mapag
hal
ase
##pand
##ut
##tek
kad
undin
eta
##dina
##nagkaroon
anib
mpalatay
##ibig
##sukat
##samantalang
##lik
##Fran
bak
##homos
ilalang
ida
##marami
##Mayo
piko
##neg
lekt
##gawaing
abot
##silangan
##ba
##Pagkatapos
taas
uhang
udi
##Silangang
##pinan
##Kar
##25
##Britan
##gay
##gumagamit
##Nob
##manlala
##Eli
wer
bin
##Mateo
##Ng
##naga
##tele
##huk
iy
lohiyang
hiyong
##pamamara
##simbahan
usang
##pagh
##nagd
##Latin
##kanila
##magp
##bay
hn
##tawag
ela
ont
ailangan
##Ipina
itang
##pelik
##pagsi
lakbay
##Gina
##Tinatawag
##ginawa
##paaralan
##ro
##alam
ono
##napaka
##Com
angay
##pangm
yente
wat
##Ko
liksik
##Muslim
hy
##pampo
##Dam
##term
##Republika
emon
##batay
onal
##pulo
##spe
ukol
##tan
##Nap
ekto
enc
emati
tic
##30
asiwa
une
##pananaw
##so
##Bagaman
mperador
##Kristiyanismo
rus
ki
##21
bia
ff
##Hun
ober
asya
##pagbaba
igil
##paghi
ulu
por
ernong
##lipunan
##Uni
into
##lupain
nay
akat
##bahag
ukas
nas
unog
##naglalaman
##dire
anay
##Pranses
##Ir
tim
##manun
##Ped
##Go
##Marso
##rito
##id
##kaga
der
awang
walang
##Panda
##makat
##Digmaang
##tri
##ipinag
##Abril
##manlalaro
ustr
##imper
##labas
##Enero
##trans
##itinatag
##inila
##pangkalahatang
##babaeng
##sariling
che
##ne
##pah
##digmaan
uran
##buwan
ity
##Pan
##gamot
ubre
##akda
##pangk
##Pa
alitan
amp
tibong
ulak
enteng
##kaniya
orn
##ikalawang
eno
atang
##elem
##Aprika
ley
##Set
ilia
##Alemanya
##nai
##Disyembre
1.
##karapat
##arti
##mater
##katumbas
##He
##Gre
can
ebr
##Kapitan
##palabas
osyo
##sim
##Amerikano
uot
bilis
ungkahi
dok
##kasalukuyan
##batang
ell
##sent
##mahalagang
hati
##edad
##|
##hari
##j
tibo
##Ts
##katutub
que
##..
##kanya
##Aklat
##nahah
##tah
##organismo
bil
chi
##Hunyo
unting
peo
kada
##Hul
##Subalit
luwensiya
##modernong
ment
##Israel
##Sh
##kababa
##co
awak
##Ngunit
##sining
ako
##Se
ring
##er
##dagat
##22
##ener
##ugnayan
ista
##indibidwal
##katao
##Te
ond
isasyon
##Santa
##Mah
##Tagalog
##karagdag
##tak
ktubre
##selula
##tumat
igdi
tok
##halaga
##Ber
ataka
##oras
sus
##kump
##tanging
##paggawa
##Ser
##Oktubre
##elekt
##tumukoy
enta
alawang
##Europeo
##sabi
##Hulyo
##dahilan
##No
ensiyang
##Nagkaka
sala
##lalo
uin
##Silangan
##kapwa
##Cor
wasan
ite
landa
##ark
##bul
balik
##Gal
##Bin
##hi
##John
##tradis
##kabis
##Th
##Agosto
##kaugnay
##tinut
reo
alaw
##III
##nagb
##dok
##likas
was
##Ehipto
##do
##ling
##umiiral
##Setyembre
##pagkakaiba
angkin
##+
##nin
##192
##mi
stro
enyo
##pampolitika
tang
ebrero
lio
##kasarian
ging
matay
##proseso
lina
eksiyon
ish
##nilala
yet
asal
##Korea
ulia
##kultura
tr
ni
uwalidad
##isinulat
##ik
##hilaga
##pamb
tog
##Sum
##Pebrero
##Phi
##gulang
resyon
usugan
##Austr
##kur
eter
be
##minsan
inan
ugang
##Pagka
##sam
##panda
##isinasa
##Tr
##madala
##Unang
##Mal
##hen
##Tur
##kaso
##medi
antong
etiko
##pagtatalik
uel
diri
ibersidad
arang
yuna
##nagsimula
##teoriya
##ari
##terit
talik
##tal
##kinaka
##militar
##magmula
##pagkat
##Ind
mpalataya
##Nobyembre
ukan
dy
unuan
##limang
##24
itaw
##Riz
##hilagang
iang
uon
##balat
eksuwalidad
##mababa
##kamay
hirapan
##sand
##Col
bit
pak
##nagiging
##pangkarani
##mababang
likong
ryo
undok
##Rizal
##dumating
##x
adong
##madalas
5.
##Gitnang
sangk
##sumunod
##pri
udd
hasa
##Cast
##dib
##191
##layunin
##nar
##Ban
##bil
##hangga
anas
##nau
##bag
##huli
##lumala
ugis
liit
##Lucas
##dalawa
zon
##Pedro
idad
##kalaga
##pab
##ibabaw
##Fili
##tr
ungat
##papel
##labis
yaan
##panlipunan
akilang
##resulta
##dekada
##And
##pagl
##Elias
##pari
ugon
3.
##matapos
##nahahati
##Kapag
aryo
##Mic
##Ed
##pambansang
##bumubuo
##katawag
cc
linang
##Sin
##Philip
##kabi
alaki
##pagtut
##damdam
##punong
##matemati
##sibil
##bakter
uwag
##Huda
##Ra
usalem
##Maraming
##magkaroon
ret
##lalaking
ess
##malakas
##Dagat
6.
##paniniwala
8.
##be
##!
giran
##liter
##Don
gr
##Mayroon
##puno
alaman
##int
##ibini
##met
##kor
mulan
ograp
##nilang
ilo
eksto
##27
2.
aon
##DNA
seho
##Ad
oly
##gumawa
##telebisyon
##pataka
##ali
ikasyon
upad
##pisikal
dik
##pangyayari
##proble
##por
lano
tori
##Basi
##pagga
##sangay
##tuwing
eral
za
##Nagkakaisang
##Aw
struk
##awit
##ebid
yat
##mangga
##gene
##muli
##Bel
##ex
##et
##kailangan
lasyon
##kabah
##tang
daman
##manana
agsak
##comune
##Simbahan
##grupo
##ide
ers
##tungkulin
##kabisera
bon
gar
sian
ft
unti
##dantaon
hayag
ld
##ulo
##Bu
uting
##pagbibigay
##pangh
riyang
##kawalan
##makabagong
likang
##ob
yeng
##Fer
##barangay
##pinap
##Pero
ibang
##mamamayan
ulog
##Mayroong
##lokal
unga
##Que
his
ibigan
yn
##his
sig
todok
##karaniwan
ayos
orya
##mahigit
orta
bispo
##Batas
plo
##pagpapat
##kun
ormasyon
yu
ira
yaw
sk
##Kanluran
##gayundin
tikal
##kapanah
##sapat
##lumitaw
##pinaniniwala
##Me
ua
##magulang
ons
##Bul
##kahirapan
##Am
##me
##sen
ukasyon
##manunulat
atibo
ora
anatili
##Wikang
ipag
##pagkab
illa
##atom
atibong
9.
##Britanya
##daan
akbo
##23
##bit
7.
versi
mad
##Herusalem
##sulat
##Para
4.
##siko
igdigang
raang
##distr
##anti
##Hapones
##kw
##kim
##pagmam
##1.
cho
##biyo
arani
##ano
ruz
ual
##bal
##tahanan
iniwalang
##Ver
##ikat
##Ebanghelyo
##halaman
##hangganan
yunal
##indust
latera
inasyon
rop
##nakap
rip
usay
##189
ake
##gamitin
##Inter
##Nic
##ch
##epekto
##Naging
##Ikalawang
ingin
##namum
##siyenti
##mito
##inilala
mpan
stang
##nagpapakita
##tiyak
##Mont
##salaysay
bayan
##Port
##Karani
##for
##musi
##hangin
vo
##patuloy
##kalakal
##Gi
aligiran
##Budd
ese
##maliliit
##Be
esto
natili
##Ca
##produkto
##binig
watig
##Ho
sasyon
olonya
##Pin
ugnayang
##?
##Sud
##kuwento
##$
##on
##ra
##enerhiya
##trabaho
##pamamaraan
##napag
hika
ido
agumpay
##wa
##sinus
##sinabi
##noon
##napap
##Maaaring
##kalika
##Imperyong
iel
uyod
##ala
bilidad
ilik
##Ex
##Bayan
##Nat
ekan
##nagkaka
##>
##Damaso
##speci
##sag
##Alex
##paano
aliwanag
##Pas
##Qu
tiko
usto
##pul
rer
##pelikula
##alaga
awid
##kabuuang
wn
ill
##sing
##konsep
##Mac
##linya
##parti
##Do
diriwang
##papa
unawa
##Kaya
bot
agad
##Rusya
##28
##naghah
ahi
##teritoryo
##mon
iks
ekt
itikan
irus
##katay
##To
##parang
mi
##kalagayan
##<
##Maaari
##Pambansang
##Pre
init
kod
utos
##Dav
sangka
sama
##pay
lipat
##tinawag
##nangyari
##pub
##Lumang
undan
mulang
##VI
##patungo
gaw
##sunod
##baybay
##Cent
banggit
ence
banan
##paksa
##tinatayang
kos
##nais
##katagang
##Buddha
##mekan
uko
ilalim
##Gawa
##Kanlurang
##26
haba
use
orld
##Shi
##ebolusyon
ahalaang
##yug
##ah
##prot
ikha
##kaba
##kalaunang
emok
##Mula
##Ortodok
me
ahalaga
##prin
egong
utong
##hugis
gid
##naunang
ubok
##liwanag
odo
##...
##pagpapa
ubuhay
ipon
##kop
ras
ukla
##edukasyon
IV
##Pandaigdig
##gusa
##materyal
ome
##100
ataan
ensiyon
itna
aryong
ante
##sinasabing
let
along
kita
##kilalang
##Aqu
##Cana
##bakterya
##mabilis
##Int
##mahi
##maaring
##bato
##pilosopiya
##Unyong
##kalikasan
mat
##bo
##Habang
patuloy
##Heb
ich
##kult
##Franc
##ugnayang
##pinagmulan
##diwa
etw
##literal
##Sinabi
##nagbigay
##Tum
##katutubong
##kakayahang
leng
##2000
##ugat
pes
ahalagang
##Mad
port
##Pasi
unduan
##teksto
asyo
lag
##pangalawang
##magiging
##Heneral
ack
##Irlanda
##nilalang
nat
##Wil
##kanon
##India
##lakas
##kilom
natiling
##maik
##malaki
##mor
##pinakama
##panganib
usyong
##natatanging
##namam
##Panah
##perso
##talaan
##nakab
##nagmum
##kaharian
risto
##unlad
##Griyegong
##iisang
sisyon
##Sob
##pamumuno
bidad
##Ge
##pangulo
##isip
hulugan
dib
##Ba
agpuan
arka
song
ze
men
##Med
##km
##ibinigay
##Nam
##skolar
##damdamin
##daang
ary
dal
##Hudaismo
yoso
##posisyon
##Santi
##matat
##putbol
pir
##kapanahunan
##190
##Malay
##direk
##Kal
##Pat
##milyon
##him
##Kas
uluan
##Ter
##serbis
##pumap
##komun
##El
##Pe
##Lin
kilala
##pamant
##Muh
##con
##Hang
##pakikipagtalik
##ukol
##lub
aksiyon
hanan
##mik
tasan
##tulong
##papunta
##karamdaman
mos
##Pangulo
lor
ipin
lant
##Fe
stitusyon
##problema
##Kong
has
oma
galing
##kababaihan
ice
ukha
##gas
##pahayag
##espesye
##0
etwork
##pinam
ical
##titi
ste
##Pinag
ie
##gabi
kw
##pangkasa
hok
yuter
inia
lia
##Cla
old
50
##kinat
ius
##ilog
##Huk
##Muham
##Pal
##Universi
##Cala
##Lum
agatang
##nob
##titik
diya
agsik
##kakayahan
##Gres
rig
##Karam
##kundi
tol
lingkod
alia
##World
##natural
##kasangka
harap
##matematika
kin
ona
kuk
amit
##Vene
uliran
##Quezon
##makikita
##namang
if
##en
logo
##nakikilala
inirahan
unayan
##bali
ept
##plan
##ipinaga
##Muhammad
##Ginagamit
daan
##Ilog
ith
##pangkaraniwang
##katangiang
anaw
##silangang
imugang
##Gresya
lisis
##Turk
##usa
inong
##kailan
##hanay
##Sobyet
utang
##ginagawa
##tinang
##Bab
##libing
cal
kang
ubhasa
##Nak
##nagla
sisyong
##saring
rio
anao
##asi
##katoto
bento
##suliran
##Vic
##Dina
##pangangailangan
##ekw
##gayon
##sakop
utol
##ninuno
lanan
##BK
##Min
##ipinaganak
##liham
##oper
##species
isan
##sus
##makaka
ayanan
##puso
##Bal
inistro
##pet
hod
say
ide
##Bat
##Ben
urg
uth
ja
##pinat
##alagad
##pagkakataon
##Kali
##str
##kaalaman
##Emperador
##malalaking
##nakasa
##teoriyang
##impormasyon
lok
uwa
asang
eph
##harap
cia
uklasan
##pansa
ahe
##pamili
ingi
##pampub
##pagba
##disp
tao
zz
ambing
##40
##Sc
##buh
##imperyo
isyo
##nga
yle
##Ina
edia
ones
##Wik
##relihi
##nabubuhay
##ulit
##Karamihan
leksiyon
##Luz
##Konseho
sanhi
ts
##Ga
we
arami
angkop
ile
##base
##isi
##seryeng
lili
##elemento
##Republikang
##ep
##ipinap
##sasak
##panlabas
ligtas
##Ti
##pagdating
##tanyag
##gitna
akda
rid
yol
##Roman
##Sulat
ahiwatig
laban
##maliban
##Santiago
enida
##Sur
##29
ilitaw
##Imperyo
ulaklak
entino
##mati
##nakita
ire
ping
##init
##tinutukoy
rato
##lalake
tomas
##samp
##kalayaan
##Est
##pinakamataas
abas
inga
##artista
##sabihin
pania
akan
##tamang
siy
##nagtatag
net
##paa
##sintomas
ere
ungang
##Santo
##pormal
##HIV
inding
van
##obispo
##minsang
##pagpapaka
##distrito
##men
anana
amo
##ikatlong
lidad
##arkeo
##nait
##ti
strak
##kompan
##Yo
##Venez
##dulo
##kasalanan
##University
##paglikha
##panloob
nam
##kada
##50
uta
##industriya
##kesa
##lumikha
lid
##Bukod
##pal
sunod
tatalik
jo
##Af
##bab
##Lalaw
ander
utusan
##siyentipiko
##humantong
ambak
uklas
wiran
##buto
##tauhan
ket
##Har
##Unit
urong
ubo
##2010
##banal
##Haring
lu
ory
##imb
aki
##madaling
##kak
antay
##nah
ugh
##diper
##Tim
age
##umu
##krim
##senso
##Kalak
bum
##ig
upan
##naniniwala
sad
##utak
ondo
##Prin
onia
##Aquino
##laro
##dah
##Hudas
##kabuuan
rot
##pagbub
##lib
##gumagawa
aas
##Walang
##pagnana
##sanggol
##Castel
uma
##sali
##sik
emonte
##Chi
##itaas
##magt
##kumulang
##Karaniwang
anasan
##Kalakhang
hael
##sund
##Banal
##Cap
##Zam
##naganap
##pananampalataya
##larawan
##Espanyol
##Paman
##bahaging
ingnan
mini
##sem
##Lalawigan
##hy
##Donya
eth
##Tor
mar
zio
##humi
##halamang
##aw
##molek
uhit
##pagtatang
ica
##Michael
##2007
##ebanghelyo
dan
mas
##sir
##Oli
##Israe
bleng
lungat
##toto
##anyong
##pamahalaang
##Meh
pay
##day
##puwer
##kanlurang
ombar
##Eskos
##Sinaunang
##ebidensiya
##malala
##homoseksuwal
ric
##alp
##mahalaga
##paga
##lumilitaw
##Ri
##tunog
##inili
##manga
##daantaon
sanib
##Suw
##patakaran
ico
##damit
##iisip
biya
##Tsino
##Sy
##Jer
ansang
kasyon
##Nan
##nalala
uruan
##humah
##kalusugan
##ipag
##kaibigan
##Amerikanong
##display
##Constantine
##aral
##katayuan
##Hebreo
##Luzon
##libingan
##gusali
##pagpapala
ibo
uria
uhin
##Francis
##2008
##gumamit
##salin
##eksper
rib
aro
##mait
##rek
##kura
##paglalakbay
##lag
##Mart
##Naga
##yugto
##impeksiyon
##tila
##Samant
##musika
babago
##ins
atan
style
pine
##pangung
ven
iemonte
##impluwensiya
ekswal
##gen
##tungo
ji
agna
##polit
##labanan
akit
istan
siyang
eses
##ideya
ubog
##Bir
##kilometro
##magkat
naw
ilyang
sy
rito
##nangyayari
##Dr
##linggo
ongo
iso
##2009
MA
ital
rist
##dibdib
##pagkaraan
##Ital
ople
##Isina
##nilikha
##disip
##Manila
rado
aha
lisa
umento
pangyari
ugtong
##kandi
##tit
##maagang
##elektron
##natut
ugal
basyon
##tradisyon
##karagdagan
##31
ukuha
##United
uki
garya
##kasulat
##mangang
alian
##kama
##Sisa
ontrol
##pinaniniwalaang
##pamamahala
mumunuan
##displaystyle
##temper
##dami
##sentro
##Alto
##naninirahan
gram
omas
##_
par
##sit
##kapaligiran
vel
##Ig
rabaho
##masel
##nagpa
##186
##alang
##pamumuhay
##Kam
##limit
##uniber
##emperador
##pagtaas
##Ha
##malawakang
##tim
##miyemb
sat
##Char
inabang
ukuyang
upang
##Mak
##Ana
##IV
##itin
##Kasama
lista
andaan
atura
##reg
##diin
##pagsusuri
##Tag
grama
##King
iram
papawid
##pitong
eso
eho
##Anti
ight
ule
##fos
##naa
##mahabang
ende
##Nasa
sion
ensiyal
nayan
##Diego
##ganap
##normal
##Sila
##espir
##tug
iolog
laga
ect
org
##Jam
##Panahon
hiyo
heno
##galing
##Ac
tatag
sangkutan
##pund
##32
##mahirap
##kilos
inag
icilia
ational
SA
##album
##patay
##kabila
isipan
##Ur
ke
##pangga
##termino
ella
ayong
yante
##Cali
##2.
angi
halal
##mukha
##konsepto
##Inglatera
##Bur
##pakik
alili
lise
##karapatan
ode
##Ao
ucle
##hini
##serye
##payak
##isipan
##pagsasanay
sulat
yin
ministr
##baka
##nakik
##katawagan
litan
stong
##pandaigdigang
lands
ardinia
##katotohanan
ilid
##pamayanan
##pinakamala
##ha
##Ingg
inango
##Nar
##karagdagang
su
##tekno
ias
##pamagat
##Fre
##iskolar
##kata
##apos
laseng
##Kina
##natagpuan
##miyembro
##Anak
##tatak
##nagsasaad
##Kala
stansiya
pam
##aari
##mabuting
erc
##Filipino
##malamang
##Mor
##Vi
unsad
##sol
alip
##Abruz
##kabahayan
##gawin
dige
##Rey
##Eslo
##Abruzzo
##nakaraang
siyahan
##Babil
itikang
##num
enos
ayapa
##nakar
##Trentino
impluwensiya
##Bra
##ako
##kabataan
ute
kong
##kompyuter
##Unibersidad
anggal
dia
rono
##Adige
buhay
##beses
alala
##baybayin
syo
##prinsip
##Tang
##pagpup
##Sudti
etong
##Sudtirol
yas
##Bag
##Lit
##rad
##itlog
##Philippine
my
##paggamot
##rel
##Brit
##pangt
##pinamumunuan
##kad
##punto
##panitikan
##inhin
##lebel
##Venezia
ilikha
##Norte
##sh
##Bago
national
fa
peto
siyo
##kinikilala
eneto
##isinasagawa
##simp
##pakiki
##relasyon
##pamilihan
##pananaliksik
kanya
##fossil
##Hit
ombardy
##Molise
##pampag
rasyon
bria
##relihiyoso
##organisasyon
##ele
##kaugali
##kinala
##nagpapat
##pangkalahatan
##York
ysayang
##klaseng
gap
mbria
##sy
##pero
##ho
##Max
indanao
##188
riko
##Araw
##Indone
ose
inea
##binata
##Aosta
##0.
##iyong
##bis
##nagaganap
utasyon
##haba
stiyang
##Colle
##qu
##mismong
sh
Mar
ete
ican
##Aust
##bumaba
##kinatawan
##kahulugang
##Ram
,1
gun
##Mali
uskanya
##presyo
##Ob
##tip
##Basilio
##mikro
##maip
##med
##Matatagpuan
##pig
##dulot
##Gr
##paglalarawan
##Lazio
iwala
milia
##alin
##kauna
##humigit
##negosyo
##bas
yayaring
ahal
##katam
##Ortodokso
anga
##nakilala
##2005
##pad
##187
##Giulia
mis
rac
intulot
##Romagna
##kagamit
##suliranin
romos
##karapatang
##Ama
akatawan
##Calabria
wing
##Nort
##Israelita
##depresyon
##Canada
##pinakamat
##sinasalita
ihang
biyo
ulok
asilic
##parir
mig
usk
##gayong
##salapi
##pumasok
ress
##anime
apan
##pasa
##Calif
##kailangang
riuli
##pagkakas
sto
##kasing
##Aposto
gsa
hay
heng
##pananakop
ikos
##doktr
##Kilala
##Lag
##Ip
##mun
waran
iguria
##sangkap
##Jud
##Hal
gasyon
##artik
pasa
##magsa
atong
##Dan
##Californ
##Bas
Ap
esh
##inilalarawan
##Tri
##nasasak
##Mehiko
Cam
chool
##paligid
Umbria
##kumakatawan
Emilia
Basilic
Basilicata
inoon
Apulia
Friuli
Lambak
Marche
Veneto
Liguria
Sicilia
##pagdad
Campania
LiguriaL
Piemonte
Sardinia
Tuskanya
##kasunod
UmbriaVeneto
##AostaApulia
ombardyMarche
CampaniaEmilia
##AbruzzoLambak
##LazioLiguriaL
##RomagnaFriuli
SardiniaSicilia
##MolisePiemonte
uis
usyo
##uniberso
##California
##Wikip
##prosesong
##serbisyo
apit
##metro
##eksperim
##nakatuon
udad
##Sinasa
nador
##gin
##pansin
##Han
##simbo
##pagm
hint
##kontrol
iwan
##Ilan
mitang
##laman
##ref
##Olimp
##inil
##etn
##halalan
yanong
##nucle
##kalinang
##ac
ungong
iter
eles
##Bro
roduk
##nangangailangan
min
kayat
##estadong
##nagm
##Binubuo
ren
##Tro
uch
##mana
isag
##nakapagpap
##car
ferrato
##malayang
##pantao
##kamp
via
##Monferrato
had
sio
##prope
##Sak
##2011
put
##alpab
ayanang
dom
landiya
##isda
##naw
##yunit
##Sept
liam
##ist
##Abenida
##himp
##ginto
##Leo
##nauugnay
##narar
##priba
##Hen
##International
##temperatura
##Punong
##partido
##Tha
##kondisyon
igh
##binibig
##paraang
yerno
##kapuluan
ksi
##guro
##pagkamatay
##pantay
##lumip
##kulturang
igat
##Ilo
##hip
##Bah
##City
##katimugang
##matagumpay
##nagsimulang
##pangyayaring
##Palaiolog
##yo
##pagpili
pas
##Tiago
##West
##bala
cion
bayad
##sahod
##relihiyong
uke
ortahan
awi
elong
##Intsik
##gitnang
##was
##Dar
ulasyong
##Palaiologos
pad
gitna
##hiwalay
##pisika
igo
##kapanganak
##Kahit
##butas
##daanan
anti
ello
##naba
##nagsisil
arin
ph
##kandid
##dakilang
lakihan
##Samantala
uluhan
ariang
lismo
##asawang
##nabuo
##lansang
bat
##sun
##suso
dio
##Er
##Cat
##itim
##but
ement
obernador
uer
onan
los
##Tar
##2006
olon
##bandang
##lumabas
##Nagka
##bunga
##doon
likasyon
##kawalang
bilang
##propes
##pir
##hukbong
anang
##pwer
##natuklasan
indu
##pagtanggap
stadi
uporta
##modelo
ikano
##anatom
##pangangat
emokrat
etnam
##klase
##produksiyon
##Ze
ridad
##kamaka
lakal
ilaw
##Bay
##programa
##National
##Bang
##Hari
##labi
##estasyon
##bundok
##th
##Cal
##integ
##Koreano
##unibersidad
##Tat
##Salvi
pala
apekto
##bibig
ez
##dom
ws
##kasunduan
##Estado
upong
##super
##kontro
##mabuti
##Arabo
##mapang
##maikling
##kre
##East
##Bos
sangkot
ins
##pagbabagong
##dalubhasa
ences
##mapap
##Homo
##kalaunan
sasangkutan
bor
pinong
##Rober
##karanasan
enesis
kit
##Budis
##ating
##proy
##Tan
,2
##My
elang
##Indonesia
utok
##bumalik
##Lond
##sama
##nakikipag
##makapangyari
##3.
##posibleng
emo
##Dep
##pamamaraang
##unti
udulot
##Pi
kasan
##matatag
##mer
##pelikulang
##pangkasarian
##Hangul
##munisip
ting
##Dom
aganap
har
aguyod
##gilid
##naglalarawan
bansa
##masasa
##mid
##imin
##huwag
##talagang
##Pon
##ord
ungga
##VII
alangkas
cha
reso
##Him
##Gales
##kromos
##Constantin
##matinding
cial
##nakikita
##binigyang
rod
kalat
##paglul
usyonar
##hap
##kong
##unahang
##Pangulong
##pen
atip
yak
##Ori
##kataga
##Wal
##dali
etikong
hag
##Guinea
kahulugan
uning
##Cris
##krit
##pamilyang
eder
kaw
agatan
##Polonya
##katawagang
baybay
##nakabatay
ando
##taas
##Paris
##galaw
yenteng
##makipag
##kompanya
##politika
cus
ebu
##Sali
##natit
##Joseph
ebol
val
##James
##nuk
##kole
##langis
##siyudad
hina
##Cas
##tumaas
ele
##bakit
ograpiya
##aawit
##mahusay
##tagasunod
##Pilipinong
##paniniwalang
##espirit
ood
##tanda
##labing
##185
##administr
##kapanganakan
enya
ises
##Valley
bog
ulangan
##tig
##gawi
last
##bukas
##kahoy
lapi
sidente
gen
usob
##usapan
##His
siko
ios
##Eb
dagdag
uluwa
##38
tot
##Ruso
ations
uris
##Pangka
tab
inian
##nagrer
ulis
##bisi
##angkop
##Ek
##matanda
omet
ves
##mu
##malinaw
tibidad
alakal
asiwaan
gong
##araling
##kamag
##rehiyong
##pampublikong
##Afri
##Francisco
##60
##aasal
##Air
iland
##tula
ligt
##malaman
##pinakamah
##Jes
##Bundok
mal
##Cav
##Cebu
##nakakat
,5
ade
##ph
##terminong
##rate
##kontin
##panitikang
gin
##Prote
##kli
##likod
##nangung
##Cer
##William
##Aug
##Tina
##mahahalagang
##Zo
##kahalaga
##akt
##ugali
car
##Eskosya
##seleksiyon
babaw
lop
gtas
urch
struktura
soci
landes
##pagbagsak
##Hi
##Matapos
##matagal
##Republic
hong
unawaan
##Constantino
##sikat
##personal
##pagtit
##legal
##aangkin
##sinasabi
gunian
##pagdiriwang
##US
kar
##det
##inaasa
apang
vil
uwid
##Kristo
opo
##alak
alakay
##makita
ungkahing
##pagkaing
##&
##35
pret
##kinasasangkutan
##tanggap
##pagsubok
##tro
##balak
igpit
peres
cio
yero
limbag
##tangga
##Sw
##program
##Dum
##Kadala
##nagmumula
##internas
sira
##bituin
##nagpapahiwatig
##apostol
##kapangyarihang
lawak
usahan
##makap
##nagawa
##respon
oso
yum
##seg
##kalakalan
ahin
##Upang
##hanggan
##presyon
##Ung
##Portugal
hana
##Moises
its
rili
##pariralang
##atomo
ain
ayapaan
lon
##bio
athala
ux
##Teo
##ca
##teknolohiya
ami
##War
##sob
unahan
##kasulatan
##Neg
looban
aralang
##Hitler
##paglago
##Dakilang
##kakulangan
oko
##pi
##Fernan
##organisa
##Gam
##sundalo
ield
ani
##American
##pagtuturo
##kalahati
##lahi
##ikala
##David
##kahaba
##Malaysia
##rebol
##aspeto
##Hum
##kem
ree
##Dito
##nasabing
##1990
umentong
##santo
##NK
##metal
risti
antasan
uhat
hanap
enn
erba
##Sena
##rec
ktang
##Sing
##hukbo
##ibon
##Ali
##naniniwalang
##Em
digma
gawang
##sosyo
##Karagatang
##krus
##ray
##magpap
##Pasipiko
##estim
##samahan
kadem
##nagbaba
kl
atos
##Pulo
##Bansa
stein
##baboy
##uring
##aking
pital
uluang
##ginawang
##sampung
##pamantayan
yar
bibig
##Hel
hiyang
##pampang
enda
##bulaklak
sius
langin
##kinakailangan
##bili
##panan
##bumuo
##siyam
entasyon
##33
ema
wil
ism
##tam
##by
##Ilang
##suma
##Et
##Parti
##bibli
arating
zzo
dro
pong
ilahok
##anong
antum
##publiko
##saklaw
##palaging
DP
insan
##Sup
omp
##patungong
kalde
##inhinyer
##kalagitna
##paghahari
##gra
##Mindanao
lot
##atake
##Os
sikong
##lumang
napan
##lar
##Ebreo
##pot
##kimikal
mu
onomiya
##bukod
##interpret
##[
kuha
uparan
lul
lathala
##mainit
utin
turang
ick
##dalaga
##alperes
##kandidato
akwil
##mismo
##Europe
##kaagad
##ngipin
urian
##Kanyang
##nabanggit
rea
##CB
linis
##College
##histori
##Jack
##School
##pasyente
unduk
alanan
zi
ulto
##GMA
##nakali
##dahon
##tradisyong
##Sib
##Bon
##disk
##Aprik
##nakuha
##kaunting
uwi
yagan
##Marami
##Je
##estadi
wakan
##Pr
##panig
lom
##Mona
##dr
bisa
##buhok
##Nagkaroon
##kahabaan
##tinatanggap
##hid
##labin
##Ipinang
##kilusang
##Italyano
agan
##Leon
ederal
riling
##nagsasalita
eneg
##Nah
##tuloy
tug
lakay
##walong
##tagumpay
anggi
##diyo
##nagdulot
##Bl
isyong
##ministro
##pagpapahalaga
cle
basan
##repub
##nakala
##direktang
##Nagsimula
##Mig
##Sar
##her
##ekonomiko
##apar
##kaisipan
##ben
##kasanayan
uyong
hirang
alint
ordinat
##magkap
##katutubo
##pagkilala
##Lang
##tradisyonal
##panla
yam
##Associ
##36
ropo
##North
inanggit
##mahihirap
amba
##ten
lamin
sag
##bersiyon
uther
##auto
##Hindu
inar
##Stat
##Network
endi
##Robert
uksan
##sitw
##ya
hann
##palat
ale
##Bina
##Kristiyanong
##Bac
igkas
##natin
kukunan
##libong
ipili
##manggagamot
##lumilikha
##Sta
##grap
##takot
##kalagitnaan
##Turkiya
ild
##selulang
##lansangan
##nagbabago
##Nab
akter
##out
##Daang
##katuruan
##langit
##ur
##dim
##magb
##plat
##kautusan
##pangs
ater
##Isabel
sakit
##dalaw
##saligang
##Apostol
##Ari
##sap
##Lab
##reproduk
##sc
##nakipag
##magkatulad
##pamayanang
##birus
##hinango
##Panginoon
aan
##kinuha
##totoo
##emp
##gaanong
fic
##seksuwalidad
##Som
##Protestant
##karne
##nawala
##yari
samang
###
##Bula
##Japan
##Pap
##Charles
##chi
bur
##tekn
##umalis
away
##analisis
eda
##nagdad
##tumungo
##kadalasan
kam
##Kaga
ise
##himpilan
##Mer
laysay
##kopya
##Just
istang
iles
unas
##batong
##istrak
##pangkasal
akot
##espesyal
##kagand
##Dinam
##tuwirang
dian
##Samar
tle
istiko
##manusk
##refer
ungkulan
##alitan
ugtog
kis
##suporta
tan
atiko
##ibina
##digmaang
##Pagkaraan
##2004
##ulat
ungkol
wika
##nakatira
##magandang
##institusyon
##Ant
##Dinastiyang
ner
##katalik
##pamamaga
##z
imo
##Fa
etang
siyal
##simpleng
##Anton
##simbahang
ction
##Tanak
adaan
##bilyong
##banda
##Armen
##tanong
##Katulad
##Uk
##sumulat
##sabay
##Alexand
##tis
##sekswal
##modelong
emokratikong
##kasangkapang
##nararapat
##heter
##Tanakh
##ebolb
##sp
apag
##Las
ubunduk
uong
##nanana
##Ib
##Ini
awig
##Miguel
##abo
unaw
##nas
aloob
stiko
rona
ark
##Nue
,3
##bakal
##kaganapan
uho
##70
eria
##kapan
##Constan
##Kapulungan
##pagdi
##munisipalidad
##Juli
##kasamang
##AB
ustong
##musik
##Nin
##kuwentong
##natatangi
##Kin
##Mediter
##magbigay
##pagnanais
##tulu
##puting
##Ger
omba
##eher
##bigkas
##krimen
##patakarang
##Nagmula
##paglipas
##apoy
##heneral
##Dinamarka
##Tiy
##katinig
reli
##maliwanag
,6
##instr
##pagkakak
,7
stika
##Tala
##prim
##kolonya
##parte
##Australia
##Lah
##kumbento
##Wikipedia
##iral
,4
vin
##Eng
mahan
##politiko
##panun
##pagsasagawa
ulti
##pagkap
yp
##rit
rinig
##Clara
##pangungusap
hahambing
##pagpapakamatay
##obser
##pangg
##paghahanap
##tingnan
ordinates
osi
##pagkuk
##henetiko
orge
##kabihas
##Um
##homo
##ibaba
##bangkay
ember
##comp
##monar
ony
##80
angkang
##daloy
logy
wasak
##Brun
##kasangkapan
##Rec
##poli
katawan
##Sun
wasang
##Union
##katan
##binuo
##Portug
##negatibong
##sagisag
angalan
##Mis
##that
##banggit
##39
##Kum
ukuyin
##agrik
Al
##South
dote
##makasa
lingan
siyasat
##Mased
##Gum
##TV
##matandang
##pera
anim
##Kastilang
##karagatan
##ekonomika
##pamantasan
orte
akbang
utukoy
##kalalakihan
uag
##Zambo
##mamatay
##pangkal
uyan
##lubos
unduang
##1980
##grupong
##lawak
##Daigdig
##programang
##umabot
##Austria
##kaluluwa
ors
##lawa
##utos
ef
##interes
##Maka
##binigyan
##disiplina
##mitolohiyang
,9
##kahalagahan
ason
##kapar
##piling
##inilabas
##nilalaman
##Ot
limang
##silid
umo
##kita
##Liber
##sirk
aham
##Jac
##umaabot
##2013
pisyal
##Award
##Pak
##usap
##Maling
zar
##Central
##Ph
##sino
##Coordinates
##not
##2001
posisyon
untis
##unting
##Jackson
##isinagawa
##produktong
ee
alabas
disyong
##Rod
##Tin
##Laba
##hener
##kalam
##sugat
##For
##Tre
##bakuna
##balangkas
##muna
##inilarawan
##pilosopiyang
gyan
##puwesto
##dist
eto
##magsasa
##kemikal
##area
nalidad
dalawang
##gam
##Birhen
uportahan
##Olimpiko
##tugon
gam
##ganito
##esk
##GDP
##Budismo
##pangkatawan
##Sen
##nil
##kamala
himpapawid
##Ah
##malub
##batayan
##pinakamatandang
digo
##organismong
ics
##August
ikot
##asido
##maling
lah
##Jesus
##naghi
##larong
##nanalo
##hinaharap
tur
##layuning
orma
itis
##doktrina
##ner
##pila
alintulad
ion
yok
istahan
##nagtut
##pagtukoy
##Alban
##Awit
##simbolo
##Zamboanga
##nananatiling
##UE
lish
##ipinat
##Kaugnay
##Budi
##sekw
##karakter
##gob
ated
atoryo
##nasus
##Mundo
##mainam
king
##kalapit
##hula
##saka
##NA
unla
##Hom
##lut
##45
##alt
##tukuyin
ede
##Fo
##Gar
##Pagpap
##astr
##pagkawala
ukd
##Iran
imulan
##artikulo
##tinanggap
usin
##timbang
nia
##Oriental
##masamang
##medisina
##prinsipyo
cto
ial
##imah
##Indiya
##histor
##Pamantasan
uwe
##Jr
##network
hek
##Tok
akilala
##Ipinag
##probin
##Masedonya
ym
lilikha
##porsiy
##sasakyang
rusa
##inf
oph
rain
##kumaka
iano
akip
##Monte
##trono
##kolon
##Hukbong
##paglaki
##Mong
##mensa
##dinala
##Ste
##ing
##Rich
##akadem
##disenyo
##Pangunahing
##Nagt
rans
##Bene
##Sang
alismo
##haring
##kayarian
##184
##kaay
##Gab
##nanatili
##Manuel
##aaralan
##Id
##templo
adal
##Sah
##kos
##eksp
##land
##hati
agon
##ikina
##popular
hand
##Yah
##Pasig
##elect
##liber
ukasyong
83
ilag
##ham
?]
##utang
##espasyo
##inu
##nagsil
##operasyon
##kateg
##pagsisi
akitang
akila
##Mang
##Rosa
sim
##Thailand
esya
##Church
##kapayapaan
bio
##bot
hayan
relihiyon
##Ingglatera
##gaga
##populasyong
umi
##manggagawa
##sayaw
##gastos
line
amental
##Organ
##Center
##kaunti
hu
arya
##Sch
##propeta
##Constantinople
##tugtug
klaw
##Lib
##nakaugali
##pil
##pampa
##tagapagtatag
##pinaniniwalaan
##Belhika
##diplo
angking
##pinunong
##paliwanag
bri
ugong
undong
##molekula
##pagbabalik
##Tiyago
##kabana
##alkalde
##Pac
##paghahanda
##Rafa
##Victor
kim
##Katip
##Batang
ny
edo
ekla
ward
dena
lamig
##pangkaraniwan
##Sult
##barko
guni
##Olanda
##porsiyento
##Pandaigdigang
imik
##Persian
##katap
##Ele
kasyong
##Santos
##sex
##Rafael
ustan
##estud
ning
##Association
andog
##panin
##Bi
##Moro
usig
##test
##madi
##kaugalian
##kawal
##Mc
##Glo
##Unggarya
##ibin
##akdang
##mamalya
ahintulot
##kahi
##katamt
##Kongreso
##mahigpit
##Mes
##Grego
##Alf
ls
##panggagamot
.5
##virus
##kapitan
liano
##On
litaw
##Darwin
##Itinat
##nagsasagawa
ukaw
##XI
nais
##Biy
##1992
##references
bos
##Tsek
lav
red
das
##tirahan
##kagamitan
siyas
diksiyon
##iisa
imbento
##pagpatay
##bumagsak
bad
ubong
##umuunlad
##ED
##pista
##Caga
##nobela
butan
unista
ety
##syn
##korte
##klasikong
acio
##tagapagt
fe
hinga
hol
hari
##posisyong
##pamantayang
##gro
##tama
##itinayo
kus
##repres
##sur
##milya
##Cagayan
##nagreres
##nagkakaroon
##Sp
##300
atikong
##Fernando
ky
##Hong
hintay
##dagdag
##dati
unungan
alitang
lian
unahin
##Kapuluang
##pribadong
akas
##neut
resulta
##Labanan
##malaya
##panging
##ipinakilala
##90
##Gor
##Lim
imili
##indep
##pagpasok
inom
##Dating
##Corinto
reng
teb
##Congo
##Martin
##Batay
##heteros
##nagdudulot
ru
##tuk
##Lina
##bik
##tradisyunal
##British
##binanggit
##napat
##lalong
##kalooban
##kalinangan
elt
##dayuhan
##umunlad
##Portuges
##pampagtatalik
##aso
##lumipat
##Tao
atagan
##sektang
##tatlo
##aal
agaling
lakalan
##Arabe
lesia
##plano
##Saligang
awad
##Nig
##pagpapahayag
67
##Pol
inisi
##radi
edon
##tinag
##Taiwan
##sanggunian
##pagsasaliksik
bert
##2012
##Saint
##gawing
##EDSA
##Laguna
##imperyong
##nagpatuloy
##nagsisilbing
ces
hem
alagay
##piraso
17
ath
##bir
##panl
##hawak
##pagsulat
aong
hawa
##Pri
##1991
oryang
yosong
##Pinan
##saser
19
omang
##isyu
##pasi
amanan
##Lahat
cy
##us
##kast
gaya
##pakikipagt
sakop
pansin
##puwersa
##puwersang
tibay
angat
##Vir
lino
##pagg
##Digmaan
##pagsasalin
uriang
##tanggapan
##kasiyahan
diko
isis
##buwis
##natitirang
##paghihiwalay
##linyang
##Cruz
##kalaban
##konseho
igyan
ising
##Kaba
ID
tima
##Cab
alawa
##pula
limuot
##aralan
akay
buka
##buk
##mutasyon
##kalimitang
##Can
##bangka
alth
##Ling
##nagsisimula
##1960
tasang
##sinundan
mpasi
##tagapang
hit
##arkit
##Atlant
##nagk
##Hilaga
##sumali
##paminsan
##nasasakupan
ear
tra
##dag
lac
##Men
##buo
uagint
##Septuagint
loh
##Tib
##talamp
dinan
##pangkalusugan
##kalak
##supling
##tawagin
##proyekto
adalas
rianismo
##punt
##Ministro
##1986
##pagsusulat
ekta
##Reyna
andar
##Star
##sitwasyon
##petsa
##hakbang
##Gala
##partikulo
##nakalilipas
nayang
##isla
##iminungkahi
##Brunei
##binago
##medikal
##Su
##Distr
bibilang
20
guw
##paring
##lokasyon
##malalim
##pananag
iro
irap
##bigat
cht
tis
##120
##Iba
##Taong
##nawaw
##ipinahayag
hating
##nabuhay
##Isin
##sumapit
##gobyerno
##edukasyong
##Cro
##Henry
##Nakat
atic
##pampan
##set
##bari
uhayan
##bilis
sen
igang
##datos
##pagbuo
##sobrang
##ilarawan
##nakatanggap
##halagang
##tumanggap
##panrelihiyon
##susunod
##pareho
##nagmam
##pangangalaga
##bisa
##estudyante
##pagpapaunlad
##500
rial
pines
##layo
##mong
##gampan
##Angeles
##pananalita
##guhit
##sekta
##rekord
##Gali
##pagdur
##interpretasyon
##wakas
##pagkilos
##Kh
##Yahw
ektong
##tinig
##makina
##manuskrito
##Sala
##naip
otesis
##pangpag
tagal
##Ferdinan
##pagpapanatili
bakya
uturing
sipikong
##post
##Davao
##isk
##umiral
katuparan
,0
##34
dulot
##1989
##pinalitan
##ABS
stiya
vic
batas
##balita
##kapara
80
##Estr
##Teoriya
##etniko
##pagkakakilan
##Philippines
ister
##2003
##kaiba
##paksang
hid
lasyong
inin
##Cha
##Louis
##kasuot
##Ferdinand
gio
##CBN
##bun
aliit
##Hina
##mapa
##pagkaba
ding
onang
##inang
##mabili
mpalatayang
##kontinente
##indibiduwal
uros
##Win
##Medi
##trib
##ambag
##sustan
##anatomiya
##kalawakan
##tumatanggap
yaya
##pumapayag
##1945
pos
##Sent
##nala
tir
edya
##Una
##ulan
##pwersa
ukay
uwang
##alamat
##Linares
##kinik
##nangangahulugan
##masi
##Itina
##nagsasabing
##pundamental
apo
lum
basa
##anghel
##likido
##pagganap
##alon
##punsiyon
##mananaliksik
10
##Bis
ulaan
##oksi
umpa
##Islands
##pilosopo
##Atlantiko
fo
osya
sehong
##diwang
##magagamit
kh
##God
##Los
##Tinawag
##pangangasiwa
right
##pagsamba
dog
ney
##dik
##agad
oth
##abs
##37
##biyolohiya
##komunikasyon
##komunidad
atiran
##Carlos
##with
ium
ogo
damang
##tiyan
##Russia
atayo
##manip
entaryo
##direksiyon
##Az
##Hip
##George
##paghuh
##protina
erra
##Red
##from
##sasa
##Monteneg
rata
dyang
##moral
##perman
uing
##Sir
rasya
##iwas
##list
##Agu
##Por
mpanan
##kasong
##elementong
##Rob
##kabuo
pektura
##tekstong
##nakalipas
rep
ingat
##tren
sipe
ranas
##Ilocos
ford
##Gil
##unit
##Ipinanganak
##Katipunan
##kontrober
otiko
##hika
rusada
##tut
##Tomas
ukal
##Kre
##pabalik
##saserdote
##1970
##payo
##lohika
##Vil
##demon
##katawang
##Kanluranin
##Flor
##Eslobakya
##paaralang
##Mi
##komb
##planeta
##umaayon
##makinang
##Tele
##pahina
##agrikultura
Alba
awal
alsik
##Arab
##galit
bukasan
erno
litis
uhunan
##antropo
##Katumbas
##paanong
##Gayundin
##Demokratikong
dikit
##umaga
##namuno
himagsik
##Zoro
##inum
lalay
##panuka
uy
##ikaapat
##Dal
##Les
##mangyari
##paningin
##Sho
##itinak
##Pop
##Nagsi
##historikal
##Tem
umpisa
##Ruman
##UK
##Lan
##Sudan
##paglili
##desisyon
##mahah
##Protestante
order
##Odis
##taba
##tubo
##Senado
xt
lack
##2002
tad
alas
##hab
##kumalat
##kayamanan
##daw
##Sumer
##Montenegro
##Art
##Pil
##Tsip
##imahe
##Tangway
##inilagay
##les
##Tsipre
##itinut
##aksiyon
##biktima
##sentral
non
##huw
##pol
lie
##Asi
##Suwesya
##kaayusan
ampok
##epis
##daliri
##Pinaniniwala
##Ni
abuti
ining
##nahi
uridad
##eksperimento
mita
##bol
entil
sigla
##rebel
##Yahweh
##nababa
##pinsala
##Kole
##alter
ahanggang
##nagreresulta
cel
##prak
##pinamunuan
##Bulacan
##ekst
##yelo
##ebolusyonar
##pares
##katunayan
##talaga
gana
##Komn
##kapalit
##solusyon
##pangkultura
ach
sas
##Nav
##basi
##unawa
##gobernador
##Sem
##makamit
##ung
##sil
##erop
##pulang
ingibabaw
omen
##1978
##puwit
##palitan
##AD
##il
##Mil
##tulay
##Zoroast
able
##sho
mpasigan
##sinumang
##laki
##Sultan
ligtaran
leto
##Big
##[?]
toman
##pagbi
##paglalagay
##matematikal
##end
berg
##Bata
##Obispo
wagi
##pagsasama
##Tra
##Maur
##pagkatao
##Villa
##sakup
##makuha
##bababa
araan
angalang
yor
##lup
##puti
##Felip
bate
##napa
eklara
uck
##Bot
galang
##lehis
##panghi
##Odiseo
##Hudyong
kulo
##Pen
##kapit
##labor
##Felipe
eon
##Budista
##gub
##Antonio
##depende
##sasakyan
##kamakailang
##Tad
##mesiyas
esti
##Pampang
##katapusan
##magpahanggang
con
##Exp
##heomet
##Komnenos
##yaman
##pangmat
struksiyon
##Sinasabing
##proba
arungan
##mahina
##Estrada
kata
##pus
##pandaigdig
##46
##kagust
##tinapay
##pangunahin
sist
hinto
araming
##patong
##Pamantasang
##pinamagatang
##Im
##pw
##Bei
##ebidensiyang
ved
##paulit
ayuhan
##misyon
likadong
##RNA
##Vietnam
##musikang
RT
vie
angkilik
pikong
##teorya
##prote
##Tumutukoy
##yum
anteng
##neuro
by
##Gol
##kabayo
##partidong
rikal
##gulay
intahan
##had
ulutan
##Tondo
##gusto
##angkin
##isdang
##hango
ott
##hene
##lumili
##pananakit
##Pinlandiya
##Mel
oryong
##Litwan
form
##Ros
##system
##materya
##Ke
##go
bok
##1981
##Lupa
##dako
##pinili
##maiwasan
nae
##we
tius
wirang
##sanga
##kasabay
kala
##Kim
##kalidad
anghal
##Albanya
##Crispin
##pagpapalit
##Madalas
##uugnay
##Richard
gsahan
##Kasal
##Gro
##Antio
##Yule
##bigyan
##kaaway
##humiwalay
##pagbigkas
##aga
##mekaniks
##paglitaw
igi
wad
##art
##Thomas
##Linyang
##kagandahan
##kapistahan
##kaguluhan
##Hol
##kulang
ily
impluwensiyahan
ku
burg
ahagi
##Simula
##dalawamp
ans
##Kingdom
##pambata
angal
##aktibong
lab
##amp
##Malta
##Palest
##pambaba
##org
##pinakat
##Naniniwala
sic
mbag
ilarawan
##kalipunan
##pangangatawan
aria
##Misa
##klima
liwanag
##Singap
##koponan
##gatas
sob
##meta
##Arabia
##pananalapi
##183
aragdag
##alternati
##nalalaman
##tsa
##idin
##pagsasanib
##suplay
##Ham
olyar
##akit
##Persa
##pandama
##Vol
##marahil
##pandagat
##interaksiyon
cter
##nanatiling
##eng
##kuryente
erang
##Rumanya
##pinakamalaki
cip
##positibong
##Act
##hita
##sapi
##pagpapakita
uela
##espe
##pabor
jing
benya
##Trin
##tribo
##ritwal
##nagmungkahi
##wat
##gumagalaw
##Cop
aging
illes
uerto
##pagkuha
ligtasan
##mabilisang
##kinakailangang
bahay
omb
sel
##ot
ensis
inaldo
##kanser
##tumagal
##mangangalakal
##43
##prop
##Himagsik
##ginagamitan
##sana
##bayag
##ligtas
##kultural
##kinalaman
##henerasyon
##pagsisimula
ensa
pirit
##Sistem
##larangang
ugma
##bek
##den
letto
##boto
##pagkakatuklas
top
##os
##Barangay
##Islamiko
ies
##Pum
logong
##inaasahang
##katauhan
##des
posi
anapbuhay
##Bonif
85
##paghahati
##Av
##tumpak
##br
itira
untunin
##demok
##pagtatayo
##binabaybay
##karunungan
kot
cean
tive
##masama
##Yam
##mono
##isinama
##sumasaklaw
##Wat
##dro
##Bosnia
##paktor
##lumalabas
##TB
silbi
ution
atibay
##Bulgarya
##moralidad
lori
hingi
urulot
##pulis
##Soci
##pader
##har
##matut
##bantog
##sinulat
langan
##nagsus
##relati
25
##1998
aksiyong
##Bonifacio
##pinangalan
##pagpupulong
##4.
##maunlad
zan
##We
vol
##Reg
##natapos
##ple
##Galacia
##pampubliko
low
##lat
romag
##Tasyo
##nukley
ugos
##Romanong
antad
higan
##Pali
##awiting
##Kagawaran
ima
tain
utbol
##kapital
##Mahal
##sober
kina
kuwa
ulus
hikayat
##Batikano
##sinag
##real
##malamig
##tenyente
##cy
intang
##etika
##tinit
##sandat
##pinakaunang
cast
##Theodo
##Partido
##nakasulat
##konseptong
hero
##Camb
##gayun
##kapare
##Mand
##emos
##kwantum
ys
mana
33
##can
##bersyon
##Bank
##bangko
##bantay
##serbisyong
idae
##Cre
##Sant
##sumasakop
##Sel
##5.
##tapat
##Kadalasang
##Ef
##Christ
##tagapam
wit
rano
##responsa
##Nov
##gland
eolohiya
##paghahambing
12
hr
uya
##Pasko
eri
##tema
##radyo
##General
##pumunta
##lipunang
##magkapatid
ilin
##prutas
##Biz
##multi
udo
ates
rek
endaryong
##direktor
entina
ui
bano
##nakamit
##kumakain
##nangungunang
dae
ilong
##Mediteran
##malubhang
riano
##baha
##bilog
##Singapore
##Halos
##inihah
##kimika
daka
entum
ubatan
##isinaad
##sabihing
89
cca
##kahalili
inta
##Nga
##Paul
##proton
##Herod
##Hukuman
##Lig
tidad
##Pana
##Shia
ramento
##ri
##150
rinlan
##Deuter
##paglipat
akanan
ayaman
##pilak
##edisyon
##pagsulong
##alpabetong
ple
ubi
##alle
roskop
PA
xas
sismo
##Sulu
##pampanana
##Karaniwan
##bahagyang
##dalampasigan
urt
letong
##Alehand
##bibliya
portasyon
##Eslobenya
ugad
##makapangyarihan
##Quir
kalang
##magla
##kontra
##Pamahalaan
##Ep
##nad
##phy
##puwang
##totoong
##Aprikano
##patungkol
##karamdamang
nin
##aba
##High
isenyo
base
##hem
lea
agpo
##magpaka
com
##Bor
##arg
cer
##domest
##ekwasyong
##pagkabuhay
##hard
##market
##asidong
##Cun
##Domin
##manok
##Cavite
##pahayagan
##hangganang
##bus
ayagan
##ver
##Estonya
##itinuring
##obserbasyon
##Britaniko
ugot
agham
enter
##nati
##kumuha
ukang
##dolyar
##tagapagp
##Instit
##talata
##pederal
##kapakanan
sit
##fo
##Latbiya
##Arg
##sinabing
##nanirahan
sap
##gl
##Kalye
##kabihasnan
##1984
##Tokyo
##Noruwe
##tisyu
##kategorya
##sena
sagawa
mali
##Kro
##Arro
hannel
toria
##hentil
ormasyong
amento
##Itinuturing
mun
ensya
##1995
##Obando
##suntok
##distritong
ole
atian
##Zeus
##ibay
ilitang
##paggalaw
##enerhiyang
ness
##pagsunod
##simulang
##aangkop
idd
##pray
babawal
##awitin
##pagkakaisa
##Pahayag
##Africa
##Makati
##Noruwega
##Alexandria
##Benedi
##pangmilitar
##kaasa
##Tsekya
##haligi
##lagnat
##pakikit
##Tiya
rating
##kasalan
##kasi
##alipin
##paggalang
##problemang
fi
##kri
##amang
katauhan
##kabahagi
##Katolisis
##aktibidad
lona
pero
sisyo
##nagsagawa
##sar
akdang
##Christi
##mensahe
##internasyonal
oton
ribusyon
##proteksiyon
cil
##nobelang
##pagsapit
##Op
##glo
##Park
##Beijing
##matataas
sobis
##tali
entidad
akatuwid
##kinilala
##panlaban
emonya
etsa
kikita
##mahar
##pansamantalang
##By
##Gin
listang
##mahaba
##Sil
adrado
##palad
entasyong
##pagkakakilanlan
65
ition
ville
apresyon
##kumpara
##ngayong
##magsasaka
##sinimulan
##Nagp
ii
15
##pinala
ubundukin
##Aguinaldo
SR
anyag
asan
##Blg
linaw
##rang
igdigan
ramuros
##personalidad
##179
ipigil
##imahen
##uugali
akinabang
semb
##pangat
##raw
##human
##Itinatag
##Jan
pikal
##record
##independi
##Katolikong
salita
##nakas
##Londres
##Mec
##Mex
##Tadeo
##maisa
##titulong
##gumaganap
edeng
mamas
##gaano
##Pilosop
##kasunduang
lito
##Bre
##von
##1997
##bilanggo
##karangalan
kaso
##Kor
ization
##pumayag
unggali
heb
uig
ubos
rikong
##Verde
##sinakop
##natalo
##Lap
ughaw
##nagng
##sagot
etisyon
##altapresyon
##Pho
##liberal
##substansiya
gulo
##Del
##Pio
##Patri
##Sol
ahinga
##Great
##nagba
sobispo
##Komisyon
##damdaming
ctor
##Caesa
##Sat
##web
##1993
##Rebol
##ginaga
##Gayunman
##tul
##bini
ahasan
##Nakita
##bayani
##mayaman
##paglawak
##kromosoma
##makaagham
alay
##apo
ative
ardinal
##tubong
##katamtamang
##Sand
##Batangas
##Fu
##leeg
##Newton
##pulong
##Intramuros
11
salang
##kampan
##kapulungan
##nakakalipas
agas
bian
lado
upit
##Suwisa
##saling
##matibay
##nauukol
##palibot
##sumailalim
##kr
##mus
##pagbabawas
##diperensiya
##You
##field
##marunong
##artipisyal
hain
##pla
##Metro
umbalik
opro
##Count
tanggol
##sektor
tograp
##Mongo
##Ehipsiyo
##ipinadala
##tinuturing
stikal
##Inggles
##allele
##humahantong
##Georg
##bakla
##barya
##Alexios
##Gan
puang
##Yugos
##Puerto
##Naglala
ace
akyat
wakas
latura
##kritiko
##gampanin
##nagsasanhi
##galak
##Linggo
##mamamayang
##tabi
lahatang
##palatandaan
##pangangaral
mbah
##1973
##aktuwal
umen
ikling
##pagkam
##inihayag
##ibinibigay
IDS
ilm
##Lev
##Mos
##Prepektura
##bagkus
##bayang
hon
##dig
##magsi
##taasang
##istruktura
##kasaysayang
orp
yung
##Bum
##Occ
ababa
##lalam
##kapala
##Belar
disenyo
##pagbib
##propor
##nagsasabi
alatang
##probinsiya
##1987
##Wala
##UN
likula
##Maxim
##katulong
isda
##Babilonia
##responsable
##1950
##paris
##pagtingin
ogn
##lumaon
ody
gado
ontin
ential
##ipinangalan
##ipakita
##pinamam
##diperensiyal
ision
yadong
##nagli
alisa
##bigla
##lumaki
##kabuoan
##paghinga
##tumataas
##sikolohiya
atia
krip
##nagpakita
##makagawa
##Constantius
undukan
##nagbub
##organo
BA
oda
tana
hanga
##milag
##ikalawa
reen
##Pla
##Sha
##Was
##Iber
##mekanismo
isismo
##Mondo
##Palarong
##kalahating
##Katolisismo
##kababaihang
##Ug
bana
##London
##Indiyano
##kahariang
##Kolehiyo
##magkakap
amin
nard
##1979
##Pent
##kani
##Mondovi
##paglusob
timp
##kumik
##Mataas
##bahagdan
##kailanman
ype
nate
idong
##Peter
##isinus
##42
##gumanap
##teolohiya
hira
##pagw
##Turko
##Bizant
##lupaing
##maituturing
chel
##Ley
##Nueva
erasyon
##praktikal
##talampakan
here
##nahalal
##aparatong
guan
##sangkatauhan
agno
##180
matiko
patupad
##doktor
##pagtatapos
##Ocean
##Saudi
##espesya
tal
##Apo
##hukuman
enz
##47
welt
##Fin
##mom
##und
ibong
##bawal
##Andron
##ginanap
lub
lamat
alaganap
##katayuang
##nagresulta
##siyentipikong
##tulang
eksiyong
##regular
etto
ender
onwelt
##konkl
##lihim
##output
##nagsisi
##pagkakab
##Andronikos
##Mediteraneo
jor
##der
akong
##nagtapos
##nakaraan
##aktor
##ekonomiyang
yd
##my
arawan
mantala
##nagdadala
##nakaugaliang
asid
litiko
##Nangang
##mabuhay
##kaligtasan
##nakasalalay
ball
##col
##Ikat
##gubat
##Valent
##dilaw
##mabigat
##Hep
rismo
inagdag
##eroplano
##nanggaling
alop
ulag
yado
##pinakab
##Kanluraning
uhod
##Luther
##kaunla
##sandata
##biyolohikal
##probabilidad
87
##nasi
mpanze
##Russian
duc
##los
conom
##AIDS
aban
serb
sauro
##landas
##ekwasyon
##Katimugang
##arian
likhang
##kathang
dep
ency
##Jav
##Jerem
##uusap
isipang
##futbol
##pangsa
##ipaliwanag
resi
##atb
##Magdal
##sapiens
##kinakatawan
ebar
enna
##Law
##absol
##binat
##nagbago
##potensiyal
##labindalawang
##59
ares
##butil
##nagpapakitang
alawig
22
60
inus
##dem
##pandar
##pinatay
##Kahilaga
sipikasyon
##pinagsasa
##istraktura
##hib
##bagyo
##republika
##masalimuot
alig
##Sansk
##kayang
##namumuno
pup
ramo
uluhang
##Lupang
oni
utri
##Tom
##ory
bacter
diwang
##Abu
##chimpanze
byo
##kang
##pagtatangka
opot
##Ligure
##kaugaliang
##pagpapatuloy
dya
##pagtiti
opya
##Baba
##VIII
hima
##kinalala
##kriminal
got
##lunti
pangulo
##relasyong
##Tay
##Efeso
agalang
##nagngangalang
##Hudaismong
##XV
##Res
##Aten
##ibong
##Tinang
##pakinabang
##kinikilalang
##tugtugin
##kabut
##kastila
sibilidad
##pagmamahal
ola
bado
itiw
##lipi
##Hesuk
ilalarawan
reto
##mem
##Sobi
##ayaw
##Christian
##pagtutuli
vat
##Indo
tabato
##sensi
##asukal
##estilo
##pinangalanang
edres
ebenta
##Kahilagaang
##1977
##Love
##kurso
##kilusan
ray
vera
##sero
##oksiheno
##matatanda
##Tu
angad
pirasyon
##Magdalena
14
hia
mith
mpas
##trang
##Kalihim
zy
yad
##53
ipot
##Nas
##Express
##Alexander
##Kasaysayan
##pinangalanan
aea
##tab
##2010.
##hinirang
bya
##Namatay
##pangkalakalan
adem
##sab
##Tagapag
##reporma
##karahasan
gada
##Lop
erong
##inte
iramdam
##Panana
##kagubatan
##benep
##gawang
isina
##rehi
##husto
##Huling
##lubhang
##pampala
##magkakat
##sikolohikal
##Lie
giang
##Chal
cience
##maayos
##Tatlong
lus
##Hay
bawas
hensiya
##monark
##matukoy
zil
hatid
##kompanyang
##pinagsamang
##%.
##Mab
##isinalin
velop
##Alej
perensiya
##natitira
##pagkakaibang
##pamim
higanti
##Daniel
##Sobiyet
##Bizantino
##reaksiyon
led
##Kana
##pagsisiyasat
00.
sano
##inilipat
##naglalaro
##chimpanzee
##ehersisyong
ubig
##kabutihan
##binibigyan
reg
##inp
##memb
##pili
##Syria
##idina
##pampanitikan
irst
##Ath
tiona
ondena
##natanggap
ware
yelo
##Gra
##Lor
andro
zab
mann
##karn
##Arroyo
##}.
##Gen
##rey
##daga
##klasi
##Sining
rante
##kanta
##pagsalakay
##tayo
##Simon
##salungat
##pinagsama
##sundalong
len
analo
##horm
##monote
##kinabukasan
##permanenteng
##organisasyong
urgo
##upuan
##pakpak
##organong
##magkakaibang
##Tulad
##babasa
##panatili
##Anim
##kolehiyo
ahalal
untang
##Helen
##fe
apekt
rates
##Leyte
##umaasa
obo
##Net
untunan
##Berlin
olyum
##tuli
##pantig
##kasarinlan
##arkeolohikal
ely
ekom
##paka
awakan
##matem
##magkas
##Pampanga
##kaparaanan
##heteroseksuwal
##sukd
##nasusulat
##kabaligtaran
##Masa
##diyosa
##perpek
##ideyang
##pinakamaagang
the
sara
##Mod
##Nep
##Ethi
ulugod
##katib
##Biyetnam
ger
##Bak
stikong
##yugtong
waan
##aab
21
##buntot
##Ja
##Ninoy
##binti
##pananagutan
cu
##Nahah
##Panahong
deng
lipunang
##Hesukristo
##PA
nong
##1994
opotam
##senti
##numero
##isagawa
endensiya
##kagamitang
##Arh
tesis
##tribong
##Kasunduan
##nom
##susi
##Kapuluan
##kabanata
##Ein
##Feli
##Narito
##laging
##Malapit
##makapagp
##hipotesis
##parok
##Hanggang
##balakang
##autoridad
##Gobernador
##paglilinaw
##pon
##sandali
ginip
##asal
##iniulat
##kamalayan
pany
##atbp
##Pinaka
##nagkamit
##teknikal
atu
##1975
##Belarus
##nagsilbing
sya
##hits
apatan
##ilong
##lahing
alye
handa
ahulugan
##pahintulot
##48
enza
thur
##Mam
ansin
##2015
##radya
##madali
biyolohiya
yla
##van
liman
##Tsin
##denom
##Cotabato
##pambabae
din
##lit
##Icel
##phen
hanang
##lunas
##mapan
##kagustuhan
igno
##sal
##tind
##Genesis
hap
ilay
opia
##ihi
##taunang
##kasuotan
##naitatag
##ihahambing
##pinakamahusay
lap
##paglilipat
##Dios
##angaw
##nukle
##pampam
##kanonikal
ull
ipit
umer
##aalis
##amino
##season
##kamakailan
##pinakamata
40
rad
ebal
quia
wood
##parusa
##sumisi
##papasok
##gu
riyal
##Unido
##katas
##carbon
##pagrer
##puntong
##sandaling
##tap
##1982
##cell
##along
##Taguig
##pormula
##plas
##Angel
##bisig
##gantimp
##heograp
cop
asawa
roheno
##Brazil
##lumisan
##lalamunan
##pagbabawal
sky
ugol
##Nobel
##Theod
##politikal
##Gold
##dinam
##African
ross
##pinakamalapit
antimp
ving
##Torre
##pinagk
##gagawin
##pagkatuto
##pagtitipon
##Hap
bihan
##karera
ipi
##Grand
##Macap
##pagkakatulad
##Wo
irma
thal
monya
##Sierra
mbot
##Andres
##tuktok
##katanggap
cea
##ilaw
##Ginamit
##Society
##Einstein
##pagsukat
udio
##naglakbay
##pakiramdam
##mapagkukunan
##Elizab
##harapan
##Ve
##Sab
silyo
##pers
##bakas
##naisa
##Alehandriya
##alternatibong
##mari
nasyon
##malalang
tatal
##samba
lisasyon
##Babilonya
##pagkaraang
asyang
##kalat
##patinig
##meto
yagang
##samahang
##konteksto
##seremonya
ator
ideo
##Lawa
##disiplinang
unud
##pint
luwensiyang
rd
##law
##medyo
##madilim
##petsang
ailangang
##papuntang
##nakakaraan
ario
##Talaan
##gagamit
##listahan
##Deuteronom
silo
##14.
##you
##mina
##Timot
##ninyo
##rehim
##Pinang
##pinakah
##parisukat
##dy
ahas
##mayor
##nayon
alagaan
##Elizabeth
##Theodosius
##panghimpapawid
dado
##bub
##kabatiran
##epektibong
##Plan
##kamalian
agot
esis
##Den
##inumin
##Paskuwa
##inhinyeriyang
##ts
babang
##Quran
##namuhay
##nagtatrabaho
ets
##huris
##Kroasya
##espesyeng
ston
##Var
##Binig
##Olandes
##Himagsikang
tory
##bolyum
##Iglesia
##Victorina
##tar
##Jean
##pagta
##krisis
##dinastiya
##nakaranas
##nagpapatuloy
ink
okus
##sul
wagan
##1920
##Tibet
##instrumentong
each
entro
##char
##Macapagal
##kromosomang
92
##Pic
##mut
##inom
##nauna
##santa
tionary
##kolehiyong
##estimulasyon
encia
##Nagb
ilibri
##kalinangang
##transportasyon
##pit
##buhat
##kinakain
##Yu
##hinati
##binuksan
##pasahero
vis
##Pad
##bid
##2014
##State
##Komonwelt
gat
##1976
##dila
##Pakistan
gor
iss
enang
##Aristo
##mundong
##ospital
##nakapali
eti
00,000
onesyo
##lutuing
##gusaling
oles
taka
##are
##sep
udyat
##mona
adaloy
##kalang
##kahawig
##spesipikong
olf
##Luk
uktot
##estr
##Briton
##mahinang
itain
iyakan
##sermon
##Tam
##Ten
16
##basa
##Smith
##Rehiyon
##ipinapakita
##iso
##Black
##maunawaan
##nagtataglay
##makasaysayang
atol
##urban
katulong
##Dalawang
##dokumento
idental
##laganap
##tumulong
##paglilingkod
##cap
##Look
upunta
##hydro
##nagbab
##Tsinong
##dumadaan
ilyo
hekut
##1972
inaryong
pian
##Nai
##Spe
##riles
hington
##alpabeto
##naglabas
##pagsisikap
##pagpapaliwanag
##75
##fa
roro
##tangh
##Iberia
##Ipinap
##biglang
##liwasan
##internasyunal
##Bus
##nakatat
##Salungat
##sekwensiya
##pambatas
##Washington
##namamahala
uron
##Negros
##relatibong
atig
##data
awakas
##Academ
##Eskoses
##nawalan
##kapalaran
ps
##Hin
##duk
##tupa
##tangway
##Institute
##konklusyon
##mapanganib
##54
pera
##1983
##mand
##pangp
##demonyo
##integral
vina
##lamb
##sini
##sumak
##alaala
##karamihang
##log
##nagh
##roon
##maaga
##pandaigdigan
yr
##Aser
##dise
##klin
##sihay
ibigang
##itinuro
##pagkasira
##du
##Lee
##Gran
##kard
##Lopez
##instit
##pagluluto
##German
##Irlandes
api
uklok
##1999
##ipap
##single
##demokrasya
##Emp
masid
##negos
##makabuo
##larawang
##Mesopotam
##Occidental
##pagkah
##pagpapah
##Il
##ok
hite
rino
##Nazar
##korup
##magkaibang
##tungkuling
##Kasalukuyang
ports
bangan
saktong
##inalis
##pagmamay
70
##Ukran
##count
##Iceland
##Timoteo
kwil
##Marcion
##Prinsipe
##momentum
##nagtagal
##Kaz
##mis
rista
##2008.
##Kinat
apektuhan
##pagkalat
##estadistika
bus
anya
##arm
##eskw
bolong
##limitado
##pinakamaliit
umpati
##Krist
##diskrim
##pagtatanghal
13
uns
rome
##Lip
ensiyong
dows
sanan
##Isinaad
##tipikal
##,.
asco
##its
uugnay
##Palip
##sunog
##Malaki
##pangkab
##itinakda
##itinuturo
##Lam
##ger
acter
onomo
##121.
##kabundukan
##sumusuporta
irm
##Reino
artamento
##nananaig
##SM
hine
##Swed
##Indian
##sentrong
##ikalimang
sey
##Adan
inatnan
vent
empor
ilitan
##parlam
##imbesti
##Arhentina
##Asia
##Super
##Sibyla
igen
##ere
entista
##Gantimp
##Nahahati
##Aserbayan
##Ci
##atomiko
xy
##Lad
##diy
onood
##Herodes
ubha
##160
##Cho
##nagsaad
##Pambansa
amis
##bungang
##pinagka
##paglabag
##pagtugon
##kumpletong
##1940
##Tech
##Nigeria
##ipinagdiriwang
uld
##tinukoy
##arkeologo
##kalagayang
yt
sau
ering
##Mary
##diyal
##Windows
##salamin
##antibiyo
##sinusuportahan
kado
##hag
##alis
insala
##Napole
##bughaw
##pababa
##positibo
kano
##Hawa
##anya
yanismo
##genome
##espiritu
var
##154
##katub
##malayo
##malinis
##kantidad
##malayong
##ruta
halaga
##Awstr
##titulo
##tuldok
##epektong
##molekular
hibo
##non
hebra
##1988
##bola
##madla
##pinup
##korpor
##hitsura
##neutron
##tumakbo
##ent
legal
##Pula
##patn
##Australya
##katibayan
##limitadong
##pagtatanggol
##atr
##Rico
##Solo
##Judas
##rural
##kamang
##kasintahan
cent
vada
##Sec
##Sto
urista
sam
##XII
##mani
##rega
awalang
umpisal
##hustong
##kahalintulad
23
sar
##kumb
##masus
agpuang
##Pilato
##angkan
##pinagmum
##pwersang
##pundasyon
##tumutugon
den
salan
##bulkan
##alm
##120.
##Rena
##pataas
##trabah
##Nakapag
uf
col
##komplikadong
gao
##orgas
##Napoleon
##nukleyar
##pambansa
met
qui
##mig
isika
##1985
##magsagawa
##paligsahan
##pagsasalita
igilan
##Frank
##Jeremias
etta
##bro
##magpa
guniang
##ibayong
##Distrito
##Kadalasan
##katanungan
##namumulaklak
itim
##kut
vision
##sustansiya
pano
hikal
rilyo
##1965
##Roxas
##opisina
##darating
##IX
ibal
yuan
istika
onsumo
##Andor
eko
##vari
ukaryo
##Asyano
##trangkaso
##korupsiyon
uv
ogen
##detalye
##katiyakan
jan
##simbolong
##Company
edral
##prehis
##nakukuha
##tumatagal
##materyales
##suliraning
,8
##pagkakap
##Mu
itid
itor
##Ire
##cas
udyok
yerto
arines
metro
##Euse
##Ikatlong
##nagpadala
##pangpagtatalik
##pinakamaraming
##Golpo
##electron
doro
##hep
##naiiba
##maganap
##kapatagan
##klasipikasyon
CO
##Buong
epsiyon
##Romanos
bes
lion
well
##Colom
##gabay
##input
##pinas
##kaparehong
##nagtagumpay
##pagkabalisa
##pulmonya
##henetikong
##nakikitang
aland
##minuto
##element
##disorder
karis
##ayos
ugaling
##Maaring
##nagwagi
##Valentinian
##tur
orneo
##order
##humingi
##Matandang
##pagbubukas
##inspirasyon
##magkabilang
##pagpapatupad
inh
##Ji
papa
usog
ordan
##Channel
##nakatayo
##masyadong
##pansarili
lica
##tuber
##prayle
##tinaguriang
##44
##dumaan
##nating
anderthal
##She
##kasanayang
##tumutulong
##magkakaroon
##Kur
##pem
##daluyan
##Ethiopia
##Laskaris
##ebolusyonaryo
tin
##CD
##Hos
##Sri
##Bill
##Tana
now
##65
##Fri
##blo
##lam
usisyon
##Doukas
##Ukranya
##posibilidad
zer
##Pand
##Proto
##number
##Camarines
##pinangang
##himpapawid
##nagsisilbi
ront
##Musi
istikong
##pinakamataong
saw
##Qui
##Isaac
##anuman
##paglilitis
##pansariling
chus
##Tun
##bos
##yerba
##Sanskrit
indig
##inak
##bumab
ulungang
##sinuman
##magagawa
hic
seg
##bip
ayaan
##Code
lantad
##Sweden
##maganda
26
##7.
organ
##asin
usapan
##matigas
##galaksiya
##nagmumungkahing
ker
tus
##Kel
ungkot
##Mexico
dez
##Jun
##poly
##Niceno
lalakbay
ks
##dek
##enc
unsod
##Bisa
##Ngayon
##Sabado
##pinangunahan
##ul
##Mur
##opin
itus
##eko
ataang
##Corpor
##Kataas
##nagpapa
##mikroskop
atehiya
##Komunista
##Ramon
##ibabang
##pagsabog
fect
perma
inanong
##historyan
##kasulatang
zzano
##Plat
##trut
##Agust
##Persia
##September
##heograpiya
##Mun
##hig
##pagmaman
##diperensiyang
stra
##1996
piritu
##terap
##Latino
##parangal
##ipinagbabawal
bu
ubay
##Prus
##ikot
##nakak
##Cristo
##karbon
##singaw
kalumang
##kasalanang
##mitolohiya
agu
ugod
##hah
osyon
##lupang
##pantele
##nagtulak
##kakaibang
##namumuhay
itud
lima
##sipi
##soft
##konserb
inda
##plast
wanagan
##representasyon
75
rel
##Suz
##misa
anasang
##butong
##Tinatayang
##impeksiyong
##pangkasaysayan
lupa
##Beng
##Taka
alipin
##Sub
##mood
##pumalit
##hinahang
##nagpasimula
##Ul
urok
##mahal
inasyong
##Malaking
je
brid
##18.
##ehekut
##kanang
##pinsan
##konsent
##malambot
omar
##Pasa
##kaaga
##handog
##Natagpuan
##panaginip
##Bol
##Kil
##Magal
utulong
##Nicaea
##pinagt
##pagbubuo
##kaisipang
ahok
ilio
##Zim
##sec
##1946
##Como
##berteb
##Nations
##Sinasabi
nos
abor
##air
onimo
##kuli
##bituka
##romant
##Maliban
##Corporation
##pagkapangulo
90
ght
##nal
ahila
lapit
##Ramos
##ipinalabas
##pagtatatag
##pagtitiwala
##Ox
##hot
##Alaga
##makik
##nagdala
##Alejandro
##Kinatawan
##nagpapahayag
rey
##Moz
##uli
alaya
anawin
##lingguw
##gumagana
oc
##Tak
##tagat
##eksaktong
saka
##Hor
##Kag
##lalag
garilyo
##tinggil
##lalakeng
##umaasang
##Rad
##1948
##kumain
##English
##palasyo
##posible
##pagpaparami
ales
##Ach
##ump
torya
##Mindoro
##Sistemang
hila
##Pet
##Cambrian
##inilunsad
##elektromag
alon
##Mao
##Pok
##palip
##birhen
##dalang
##nagpaka
##internet
loid
sita
tero
##Samp
##piye
##Dakila
##Pagsasa
##idinagdag
##Samakatuwid
dami
utom
lekta
##dumi
##long
##Island
##Nether
##Madagas
##nakatala
##isinilang
##tagapangasiwa
30
98
dol
undi
##abstrak
##basikong
##kabahaging
##sandatahang
##oryentasyong
##Ira
umanggi
##Henesis
##basehan
##milagro
##Hinduismo
##maramihan
##Bik
##nili
##2009.
indihan
lohista
##makukuha
##negatibo
##`
light
yansa
##amoy
##nucleus
##Internet
##Qur
##inc
naryo
##Alagad
##relatibidad
##magkakaugnay
##Day
##1941
tikong
##droga
##ikatlo
##papala
##sintesis
##Enri
anggol
##midya
##orden
##uusig
##tingin
##nakalagay
##Organization
xis
##nilay
untahan
##linyar
##naglingkod
jin
##Dj
##Kla
bakal
venue
##dula
toridad
##France
##senador
##tindahan
##kinalalagyan
arte
##Taon
##host
##tuwid
##aplikasyon
##'.
lius
##Hot
##Inc
likano
ensidad
##binaba
##pagkakamit
##responsibilidad
##52
##sk
emen
##1949
##kunin
antayan
##Solomon
##ve
##1930
ninilay
##ibinalik
##pagsakop
pus
##em
##bana
usugang
##Albert
##Health
ompyuter
##pagtulong
##pilosopong
azz
##fac
enyong
##makro
ektahan
##naaangkop
##emb
##kosmo
##Magmula
##sinusundan
##Cir
##Sik
##right
ugp
##XVI
##alit
##Troya
##drama
##kumpol
##Krusada
##Kardinal
##doktrinang
##But
lanes
##Ermita
##entidad
##pulgada
##sakupin
##planetang
##Rebolusyong
nano
##All
##Yos
##ahedres
##European
##inaasahan
##Kalimitang
##56
##One
ukhang
##reyna
##Iloilo
##import
##disease
##laboratoryo
##Mesa
##Broad
##People
##pagmim
##itinalaga
ible
##bungo
##pagsam
##Quirino
##Kalaunan
##Kaw
gdaan
##aler
##lumi
##under
##dibisyon
##mayamang
emp
##6.
arch
eman
##mabagal
##kalamnan
##absolutong
##^
arth
##inaangkin
##lumaganap
##nakakapag
##pagtatakda
##Netherlands
##pagkakamali
ikli
vern
##rept
usbong
##Cambo
##Colum
##America
##makalikha
##pagkalipas
54
wo
sant
antig
##Itim
##ikaw
##puki
lement
##ahente
ineering
##ST
##Borm
##iiba
mangan
positor
roroonan
##balikat
##kasingkahulugan
okan
##Ako
##Dec
##Kay
##Lao
ritis
##year
##hinah
##nagawang
oniko
##itinag
ahilanan
##tumuturing
##antibiyotiko
ubad
tipon
antiya
##inapo
##paghihirap
ense
isia
olos
##mit
##nagpat
##Ottoman
olum
vian
##Van
##pis
##Imin
##Orig
##Virg
##Agham
enstein
##Bagama
##pagkag
otse
##Lup
##nit
areho
##Bali
##Marino
##tuberc
##kilomet
##nasakop
##makilala
##taglamig
##Castelletto
##Gantimpalang
##ani
##1969
##kalye
##ugnay
##karneng
##nakatakdang
inis
lesi
##bib
adama
atiwa
cedon
isanan
##pagano
##bihirang
##dasal
##aktibo
##pagdaka
##tumanggi
babwe
ubukan
##mabuo
ression
##tuyong
##mamuhay
##mamimili
##dinastiyang
iwas
##imba
##Jacob
##Masor
##umiikot
##nagsasama
##CO
grap
stero
utive
##Army
##2011.
##embah
##pagpigil
##kadahilanan
##Had
abong
inato
lehem
##Belbo
gitnang
##Lupain
##Muling
##Sentral
##pagkakal
##kapanahunang
##kinaroroonan
rough
##Juda
##pusa
##epektibo
##Hey
adali
gihan
##Trans
##baril
##gulong
okontrol
##tumigil
##Isinulat
##pagtulog
vio
upil
saryo
##Comm
##Hawaii
##Magallanes
##Eg
##Kant
##kati
##Higit
velopment
##pagtanggi
##natagpuang
35
EC
ange
##Song
vement
##Pamam
imulang
##Espiritu
##kayariang
##pinagmumulan
rok
##ki
xide
##Iraq
##Merc
##nakah
galingan
##misyong
##propesor
##makatulong
##pagpapalabas
lod
##Arius
atiwakal
##gagamitin
##Pinaniniwalaang
##Nik
aslang
hoy
##Hy
urol
##rock
##makitid
##pangatlong
##pasyenteng
##proyektong
##nilalarawan
##Sr
0000
##iwan
##mabi
##bilyon
##Palasyo
##nalilikha
ichi
neum
##pastol
##pagbubuntis
hig
##62
urado
##Hung
##utong
##semilya
##balahibo
##interbal
##naturang
##kalangitan
TC
idel
##Asa
##iyo
##pho
ensor
##2007.
##banta
##ilegal
##konstit
##Dumating
##Gregorio
##palakasan
##Lupangyelo
34
##55
ashi
##1939
##Luis
##Nazi
##mags
lunsad
##Human
unayang
##mister
##pakikitungo
##panlipunang
lako
##Poly
##Andre
##Napap
##pinto
larawan
##nalikha
lass
##napili
##Academy
##manatili
##panauhin
##nagpapahintulot
##51
alok
ektado
ultural
##Armenya
##inilathala
##mapanatili
##Cora
##ehersisyo
##perpektong
goy
##Common
##himagsik
##Chalcedon
##pakikidigma
AR
##kub
##resi
##Lukas
ecutive
##saloob
##naisulat
##espasyong
##magkahiwalay
##pakikipaglaban
##]
##Kit
##Map
##cal
##sexual
##tanggapin
##8.
##awt
iksiyon
##tuluyang
##Antioquia
##app
##ipin
utusang
##punsiyong
for
##Ik
##dob
##Beth
##kaasalan
##kapareha
##tropikal
##Benedicto
##ipinakita
##kondisyong
##diskriminasyon
raft
ukid
##Ander
##dumad
##tanawin
##pagkatalo
##sikolohiyang
phy
vice
mitan
##over
##ekskl
##hapon
##siklo
##Liecht
##atomic
##maalam
##pintor
##makakuha
##tre
##impra
##kanan
##episod
##tigdas
##paglabas
##nagtuturo
avi
##Abr
##Pena
##magd
##Exodo
##proto
logical
##orgasmo
##pinagtibay
##nagmumungkahi
##Lu
##Bawat
##porma
cher
ilig
board
##libo
##debate
##magtat
strukturang
##Liechtenstein
##Cauc
##Kasapi
omena
sanas
##Java
##Serbya
##opinyon
##ugaling
##kabataang
##pinagtatal
##9.
##penet
##Ipinapakita
##Fal
ahina
tical
##malay
##ikalabing
##Boy
other
##Sidd
##tipo
##Napag
usibong
##eukaryo
##kalihim
##tinipon
##Cambodia
##Palestina
##naghahanap
##pinakatanyag
atio
##sop
##Barb
##Clar
##nabi
##itinala
##nagsabi
86
##Cle
##Shin
##Corazon
##pagkontrol
stas
##mic
##porm
##Ghana
##analy
##Zealand
##kalahok
##kursong
##panukala
##itinaguyod
##kapansanan
##Ortodoksong
##pantelebisyon
uary
riang
##Cuba
##Linya
##henus
##nakad
##nalaman
##pinakaka
##teritoryong
##Ipinaliwanag
nes
lahi
rich
##Libya
raniwang
##ituring
gy
alista
steryo
##power
##Bormida
##Princip
##namamatay
##pagpapakasal
##maw
lawig
##Road
itikal
urismo
##igina
##Gloria
##pribado
##Colombia
##binibigkas
seso
panya
##sibili
##Bulebar
##nabubuo
##tauhang
##realidad
##singsing
##Naglalaman
##57
##Gio
##Mana
##Malate
tainment
##iniisip
##tuluyan
inatwiran
Ang
##cor
##astro
##kabiserang
##Gayon
##peryo
##panini
##Pangasi
##konstant
##pangalawa
eista
##Green
umpleto
##lumahok
##pakahulugan
##Pangkalahatang
##Sex
##arko
##back
##atoms
##pinahi
##Abraham
##daungan
##naghayag
##pagtutol
##Ili
##Oly
alakas
##Ginawa
##lindol
unghayan
##dinisenyo
##panlalaki
##hurisdiksiyon
TO
ries
naeus
rapiko
##Valer
##lider
##inihan
##partic
##panghuk
##mansanas
##konsehong
##binabanggit
##administrasyon
cco
ream
utla
iting
##1944
##akyat
##Nagpap
##Malolos
##Paaralan
##Kailangan
##paliparan
##nangingibabaw
wian
##Alb
##2016
##Hall
##Maba
##erect
##hukom
##pinakad
##nananatili
##arkeolohiya
yl
##kabig
kulosis
##States
##Birheng
##Litwanya
##Mahalaga
##dahilang
##inilimbag
##Pangasinan
##halik
##Croatia
##gantimpala
##rebolusyonar
tt
acea
oter
lines
rogen
##lasa
##kahina
##salaping
##magsimula
bub
ambi
ardo
iyas
amino
esyon
##Scri
##imam
##maabot
##Ki
##has
otype
##hiwa
bispong
ulitika
##pagninilay
##pangmatagalang
baka
ogon
##Dio
##Met
lorida
##Pinap
##regalo
##pagkaunawa
##nangangasiwa
##Lux
##watawat
##nagbuhat
##pagkakasunud
IS
eros
ikan
forte
##1935
##mapat
abilang
,000,000
utrisyon
##Bernard
##Katutub
##Pinakam
##barkong
##prusisyon
##karanasang
##tela
##aralin
mamasdang
pher
ulaw
##bug
##imm
##Rocca
fecture
##naitala
##kahilingan
##q
##Tali
##media
##panand
ganapang
##paglalapat
ury
##Conc
our
##Arm
dirig
##Thai
wangis
##iniwan
hagi
##Gir
##1947
##Maga
##leon
digong
##magpat
##metabo
##imbento
##makapal
estra
imula
##Suri
ektura
##menor
##kagaya
##makata
umenikal
##kulisap
##Augustus
##kontempor
##Italyanong
##pangkompyuter
list
##Kop
##Magu
umpirma
##itinang
##narinig
##sadyang
##Zoroastrianismo
cocc
zano
##balan
##nabigo
##Enrique
##Hinango
##karatig
##magasin
##propesiya
##bilangguan
##imbensiyon
##nakakaapekto
GB
##64
##Casa
##bawa
ekonom
##pandi
##video
##ipinas
##hanapbuhay
##Yi
imum
##Raj
rolyo
##ther
##kalakhang
cess
##Sus
##Conf
##Pant
##have
langoy
##katubigan
##kaunlaran
##pagsusuring
iola
##inih
##panalangin
##kinalabasan
ES
##66
atra
urus
uwer
engue
##Jeho
##Tinut
##marahas
##Achilles
##konstitusyon
##dri
##pinagd
##Luksemb
##likuran
##nawawala
##santauhan
##Prefecture
##ekonomikang
##Far
##Ukra
ahanan
##bayad
##Pokemon
##erectus
##mungkahi
##nagagamit
##400
##Cham
##Lakas
##tanso
##pangako
##kolonyal
##tuberkulosis
##lu
##Justin
##baguhin
##eksplor
##pandigma
##nagpapataas
kul
tod
##SI
,500
##Seg
##Vin
opter
##form
##Mahar
##Ponti
siyonal
##Filipo
##ilagay
##tampok
##manging
##parusang
##impormasyong
48
99
ollo
##soli
##teor
##Brown
liligaw
##Awards
##Tanzan
##katapatan
stela
ugunan
##itinakwil
##kabuhayan
##nilalapat
istr
##cir
##Judah
##Kasak
##Medina
##isahan
##Tanzania
##presensiya
##Cy
##PP
##Nami
##motor
##Pelikula
##dayuhang
##lehislatura
tag
ukar
##Coun
##Kenya
##tumira
##anggulo
##Zimbabwe
##kaganapang
##Fla
bourg
ristan
ambique
##maikli
##Comoros
##pagbasa
##paglaon
##kreasyon
##paglisan
##Konsehong
##Mozambique
##artikulong
##Luksemburgo
##panatilihin
##one
##Herz
##mass
##nakakita
ots
tel
ality
sulok
##Tiber
##babala
##nasasa
##pagded
##purong
##Scrivia
##pinamamahalaan
##mineral
##kaligaya
##kampanya
##pagtatalo
##inilalagay
##pagkabulok
chang
##kaaya
##korona
##alhebra
##komunista
##pasilidad
##koleksiyon
ert
##Sas
##Kasakistan
##naglalakbay
uio
##han
asiko
##Fras
##Herman
##iingat
##lumalaki
##pagkakatatag
artel
drome
okri
osyal
##Itin
##Enter
##Haiti
intuang
##komplek
##magdulot
sistensiya
##espiritwal
##maramihang
##suportahan
ords
yaang
##2006.
##alala
##patri
##Bataan
##aktres
##sonang
volution
##pamangkin
##glandulang
##pagdaragdag
##Ay
##Bala
##damo
aliang
utista
##Night
##ekspe
##lathala
##saligan
##inangkin
ukit
##ibat
##rand
kaloob
##Found
##kardinal
##pagpapalitan
abya
gamesh
##kawan
##Rivera
##transp
##Agustin
##pertili
##mabigyan
##awtoridad
##Pangalawang
oper
##Bri
##biy
##binan
##putik
##Baguio
##panitik
##kimikang
##kumikilos
##heometriya
##arkitektura
##institusyong
##63
##RP
iman
duktor
##Bautista
##nilagdaan
lex
tid
tian
##Duke
unidad
limutan
##Gumaga
##hininga
##paunang
##pinapat
##klasikal
##pumapasok
66
ette
##Osi
ridge
anismo
mamatay
##Mongol
##Victoria
##mangyayari
##mant
orhiya
##Pasay
##Reyes
##Jordan
##dengue
##masang
##mekanikal
##masasamang
##homosekswal
##Dic
##Lanao
##nabab
##Austrya
##pagkakataong
##*.
tiya
pitan
##Long
itasyon
##1898
##Cant
##abot
##hibla
##pagti
##Expressway
##estruktura
##kompetisyon
##Imp
eroon
##ahas
##Pinat
##Univer
##Namibia
##nagsanhi
pot
wiang
##kayo
##Malawak
##Cameroon
##Trinidad
##nakabase
##diplomatiko
ior
##85
enzo
inas
usika
##bunt
##aalsa
##nabig
kasundo
##ninanais
akinabangan
##panggitnang
28
eba
##Che
##high
ilalan
##isama
##Monako
##espesi
ektadong
##Kasunod
##Nagsasa
##nagwakas
##napansin
##pinayagan
##magn
##Bible
##kabay
##lumag
##bektor
##Gilgamesh
SH
##Pl
ilog
##ibn
##Etrus
##teore
##tuhod
##viral
##ibigay
##Tarsilo
##bintana
##tahimik
##Aprikanong
isya
ilian
##Tawi
##tero
##ngalan
enso
##Byz
##Nis
##Kabisa
##bumili
##pigura
ubunduking
AN
ign
sum
atro
rine
estong
##pinasi
##pampook
##makapagbigay
perm
ostomo
##Templo
##pintuan
##syndrome
##talatang
##Kabisayaan
##konsentrasyon
hai
##kompuw
ilibrium
##nagpunta
##ula
##piso
##Borneo
##saloobin
rya
enus
mura
sabay
##kurba
##aabuso
##panlik
##sinamahan
leta
gisag
##comm
##aalok
##atmos
##bomba
##Makikita
##distansiya
##prostitusyon
anto
uwan
##Cape
halong
rother
##White
##abala
##Madrid
unikasyon
##Nakilala
##pangangatwiran
imat
irer
view
##Lun
ingan
##prekw
##Bisaya
##Osiris
##lumago
##pangng
##pamilihang
##155
##pek
aheng
##madre
##Edward
##Poland
##Florida
##biolohikal
18
##PS
##stress
##astronomiya
##korporasyon
##pur
obina
retong
##libro
##quark
##mandirig
##Heyorhiya
##kalusugang
##kombinasyon
BC
uff
burn
##Alg
##tik
ebolb
##Sibil
##mabub
##Andora
##Zambia
##Kredong
##kanluraning
ides
##Lac
##River
##sumama
##Tinanong
##Madagascar
##nakaligtas
##sekwensiyang
ike
ague
ukob
##Equ
##hinahati
##dumadaloy
##nagpahayag
hena
##176
##tax
ortal
wanan
##samu
aligirang
##pandinig
aloy
##170
##Herseg
##basket
##puntos
##samang
##Tingnan
##Triasiko
##Hersegobina
##Jim
##Pra
##dele
lanong
##Bikol
##Micro
##sumik
##Arturo
##Franco
##matalik
##pangarap
hed
##kg
field
##acid
##Sukar
##kwant
##sulok
##Avenue
##lumaban
##Samahang
##pagsasaka
##inan
##Inila
sasyong
##Nakaka
##inutusan
##mayayaman
##!.
chiz
##Diony
##Tutan
##minam
##tumakas
##densidad
##henetika
##Ty
ceae
##Ain
##1000
##Qing
lamuha
rawang
##Ikala
##Canaan
##ranggo
##unggoy
##Alemang
##magamit
##pagdurusa
vig
uchi
uway
##Pto
##kato
##Ateneo
##parokya
may
##Sag
##plur
##Bissau
##kumilos
##ehekutibo
rut
##Mold
angkat
##imposi
##Gordian
##Pangkat
##nagsilbi
##dalawampu
##sapilitang
rie
ahon
##1971
##Mecca
##Sunni
##pagkakah
##kompositor
##Neo
diyos
##bakulaw
##sinapup
##tumakwil
##kasangkot
##pinagmulang
book
##shi
##gang
##Uganda
##dugong
##kanais
##pagkal
##nakapaligid
lope
okon
rict
##Mai
ilanggo
##nagturo
##pagtakbo
##Arianismo
##pangmusika
##teoretikal
##sumasalungat
##IC
##seks
##Marik
##optim
##umano
##tulungan
##nabibilang
##nakarating
riol
##kup
##pep
impla
onita
##Tarlac
##Lansang
##Science
##dalisay
##panukalang
##rebolusyon
##ipinakikita
##ginagampanan
##Eti
##Sap
utama
##krist
##nakahi
##emosyon
##panlala
##Moldabya
##protinang
##estadistikal
72
lov
##Ce
##Nilala
##pagpopro
##pinakasi
##pagsilang
##pagkakabuo
awaan
##kalk
##oport
##komedya
##biglaang
##limitasyon
##pagmamasid
bilit
##kotse
##krono
##Lambak
##Montal
##kausap
##sekular
##bersiyong
##kagawaran
##sukdulang
dise
##acc
osong
ument
##Hala
##lobo
##Homer
##bidyo
silbing
##gabing
##nagpapaka
##95
##Ju
urel
##who
masdan
##Luxem
##tangi
usyonal
##kadahil
ensiyonal
##Luxembourg
##Blo
##Sey
lipad
##Mosco
##masaya
##lumapit
aramdaman
##naglalakad
##tagapagpaganap
ev
quin
ather
tions
inggan
##Lupon
mission
##nakakatulong
lesya
##Marie
##urbano
##Hab
##Tito
alamig
palaran
##ahensiya
##argumento
lump
##fer
##pse
baryo
##Pagd
##pamba
##Anasta
##Mandal
##Sukarno
##nakagawa
##obispong
##Patriarka
##Samaritan
79
##metap
##halong
##Kanilang
##inhinyero
TV
unyag
##Prad
##dahan
##sosya
##Johann
##papaano
##el
##Pun
##pumup
##genetic
##mikrobyo
##Dalubhasa
##maharlika
##sinapupunan
aku
##kogn
alikod
##memorya
##pinakak
lob
ject
uten
##Borg
lacion
##Mounta
##Angelos
##Surigao
##Maguindanao
uts
##wo
##Lar
ayana
galig
umpara
##ngayo
##sumuko
##Christo
unggaling
##software
##Partidong
##nagsabing
##magkakaiba
##nakatulong
##dalawampung
##nakamamatay
##pagsasaayos
##Bad
##Allah
##gabin
egovina
ibagong
##bihira
##tiwala
##makarating
##organisadong
76
bic
row
##nasyo
##polite
##tumugon
##analysis
##Inilarawan
elle
##Nana
##mult
##1945.
##Macedon
##palagiang
##paglalahad
##49
olyo
##dip
##flu
##radio
##Tutank
##kodigo
##komisyon
##kagalingan
pun
yaga
##cre
##puk
ities
##Dong
##Liga
##Stra
ahalan
##dosis
##estat
##patas
##silbi
##takbo
##dambana
##paglalaro
##umaapekto
##naglalagay
##Mandaluyong
##Amb
ikado
##Nico
##patag
##mambaba
##umakyat
##Bethlehem
##pangunguna
##katungkulan
##tagapagligtas
tia
##Pur
##Gabi
##Lanka
hambing
indigan
##Polako
##aposto
##Galilea
##magkakas
##salamang
##pagpapakilala
test
##Got
##bud
arter
isita
##pilo
##China
##bariab
##galang
##tainga
##halimba
vid
##41
otto
polo
##1918
##Best
##Chan
##alko
inoong
##Turkey
##alisin
##kusang
##kaarawan
##panganay
banghelyong
##propesyonal
rov
ilar
##Ask
##ipa
uwaan
##kosm
##yung
daglat
##milenyo
##natutulog
##relihiyosong
wig
##hel
##Clem
##maitim
##lumipas
intulutan
##nakakuha
##Crisostomo
##naglilingkod
##tagapagtaguyod
ix
pik
##mau
galit
##dili
ahimik
##Herac
##roman
ayagang
##pumili
##tumama
##turista
##mabawasan
##Bulubundukin
##istrakturang
ju
ghan
##Chin
##epid
ipinta
##Paleo
##genus
##Langhe
##Oxford
##Gautama
##aklatan
##magbibigay
##Off
##Child
##Olona
##Quiapo
tolohiya
alisasyon
##kapaligirang
zu
bela
##Dip
##emer
aranas
ulatan
##isoto
gandang
##Bahagi
##harang
##abenida
##nawasak
cies
erya
##hudyat
##pangangalagang
ful
vana
atist
harma
walong
##ipang
##metodo
##Palomar
amina
##dino
##balik
##kabal
##nakal
##Moscow
##Algeria
##Georgia
##patayin
##Ran
lakan
##kwan
##emple
##kinuk
##gabinete
mir
emoc
##bur
##abay
##maari
##meron
palagay
##pananim
##radyasyon
##tuberculo
##paglaganap
##Pamahalaang
##ordinaryong
ingo
ugas
##Kuw
imika
##Calo
##Sovi
##sagr
coccus
ormang
##depin
##karga
##ngang
##Pagtat
ithe
omod
##Ebi
##Sac
tista
##Emilio
##palagay
##panlupa
##Wikipedi
##kuwadrado
##130
##aam
##sya
##fung
dadala
##Valens
##nahati
##umpisa
##kaagahan
##himagsikan
78
dos
##1961
##dakong
ilalanin
##aparato
##pisikang
ebe
mes
erre
##15.
mento
##Lega
##mast
umpaman
##strain
##pambibig
##Awstronesyo
upi
ings
##Gon
##mes
inius
bahala
##masid
##Gambia
##kaakit
ungaling
##seguridad
don
atis
hiro
union
##1929
##Tanging
24
45
ript
##max
##mung
##hubad
ambakal
naryong
##Afghan
##suport
##maingat
##bon
hango
kabok
##1967
##Gram
##Krus
anyang
otonin
##talud
alastas
##Econom
##Constans
##kontrata
ampi
izei
##Roy
##Bots
##Tora
##mole
##lalim
##aalipin
##talaang
##telepon
##benepisyo
##Distritong
##Britanikong
##pangangalakal
omi
ques
ugin
##Maya
##alok
##were
##kanal
##bumasa
##lambat
##dinadaglat
##nakapaloob
##pangingibabaw
##vo
alad
omer
##Bud
##Nes
ryong
##1900
##Lady
##Robin
##alkim
##napak
##table
ederasyon
##Virginia
iao
##ge
angh
usta
##Sever
##Estasyon
##nagtatapos
##reproduksiyon
##Fra
##Sep
nosis
nology
##Indones
##tinatag
##nagbalik
##69
##sw
##175
##Aga
##Miss
##imig
##March
##Pinoy
##Finland
##Morocco
##mahilig
##Foundation
siyam
##Sene
##Elena
##magawa
##Palawan
##nakabal
##Arsobispo
##Bibliyang
##kababalag
##nagdurulot
cta
##ubo
##1962
##1974
##Seba
##pondo
##Angola
##Isaias
##sakristan
##Pinaniniwalaan
dyus
##LRT
##angat
##palayaw
##wastong
ocan
onyo
##Swa
##Free
##nali
okripa
##marka
enzuela
##Stalin
##kampana
##malikha
##Pagtatalik
Ar
yg
##kape
##matit
ekstong
politan
##Agusan
##social
##eskwela
##sumakop
##pagdadala
##Herzegovina
##pagsasabing
IA
cine
sand
bihin
##Tian
##Music
amanang
linangan
##Sebasti
##sumasang
##Samantalang
atus
helm
atwiran
mercial
##Samuel
##okasyon
##Botswana
##Marikina
##impormal
##kaibigang
##tumutungo
##kadahilanang
##Va
dium
pace
rote
uhos
##dram
##gala
##heli
##tagas
ayamang
##Abriol
##dalhin
##Caloocan
##Paliparang
##Valenzuela
##dimensiyon
disip
kayin
##Stre
arasal
panish
ritory
hintulutan
##nakatagpo
##ginagawang
##naghahayag
##Kalendaryong
ean
tar
##Leg
##eti
##Kaka
##mais
##uling
##dumalo
##sumang
##Eusebio
##computer
##kaibahan
##paghihimagsik
oll
gdag
##Kha
daang
##1942
##halo
##kalan
##kapilya
##Mongolia
##pagtuklas
##Entertainment
kur
neg
oku
ulas
upak
##Cur
##1896
##kadi
ligtad
ulture
##bahid
##Parana
##Hepburn
##Sumeryo
##klasiko
##katatagan
##nagpapaliwanag
hern
##ion
##Sapag
##kabihasnang
##Nangangahulugan
uwas
vard
##sto
renia
##sung
##Judea
##tagap
##hatiin
##Serbiya
##tagapagmana
##ebanghelyong
balan
house
##manipis
sapalaran
##serotonin
##pagbabayad
##kalendaryong
##pagtatanggal
hra
##1953
##Pinas
##magas
bisyong
olohiya
##artistang
##CH
boto
fran
otho
##Let
angan
##ikap
##Nepal
##antidep
##binibigyang
##naghahangad
##sumasailalim
##konstruksiyon
hou
##Bh
##Oro
##asp
##Chad
umpong
##Garcia
##Medical
##pagpapadala
##katotohanang
uss
##SF
kawa
uhing
##Bakr
##Octo
##game
##katim
##System
##pangkap
##magpakita
##oposisyon
##Dictionary
ebra
##Tig
##plu
amasa
##wave
##Romania
##Samahan
##planong
##paganong
##tatsulok
##matatandang
##prekwensiya
##nagpapanatili
etes
##Ala
##kud
##hilaw
##salik
walidad
##sapatos
##alinsunod
##tugtuging
tide
##all
hamun
uster
##Shan
##atin
gagawa
isidad
##algor
##handa
alangtao
##Clemente
##empleyado
##UP
mark
ramdam
##Nauch
##kanin
##panganganak
##prinsipyong
##pagpapalawig
nij
pen
##Fi
##Pub
##Akka
##Cabo
##supot
##Paghah
##Eastern
##Yugoslav
##nakapagd
##nakapagt
##propetang
##kontrobersiya
88
cano
##Ati
##bre
##Step
anasio
##pneum
sikolohiya
rt
boy
elli
odon
sisi
##Say
##Tal
##Pres
##pluw
nanais
##param
##Dagdag
##kampus
##nagkuk
##pagpaplano
usong
##Caesar
alyadong
##patunay
##siglong
##Nauchnij
##alerhiya
##kasaping
##katuwaan
##panginoon
##tagagamit
##Iminungkahi
##nakahiwalay
94
rh
sica
gasig
##bron
ubhasang
##napatay
##pagpapasya
##industriyal
rius
##325
##Bahay
asyonal
##gustong
##segundo
##Ebionita
##matagpuan
##dio
toral
##hana
##ketong
##tempor
##hulihan
##Nazareth
##mamamatay
##mambabasa
##isinusulat
zed
##vac
##takip
chizoph
##nagtit
##pangsi
hinatnan
salubong
##paglaban
##pakikipagka
ece
icus
##Top
##empi
##tsis
bahagi
##Basil
##Silla
alamang
bacteria
uwalhati
##pwedeng
##inihalal
##pagharap
##sibilyan
##diyalekto
##pagkabata
chizophrenia
des
uras
##hor
##ink
##bigas
##gamma
##Napaka
##sinisi
##pagdaan
##marangal
##Budismong
##molekulang
iping
##Film
##Rail
usayan
##apely
##ligaw
##erotiko
##sinapit
##pambayan
##nakakabit
##loh
##Comp
stiyon
##2004.
##Lesotho
##mananakop
##pagtatala
##kamalayang
##kanluranin
zpi
cija
##bad
itius
##math
##sens
likado
##Pitong
##Somalia
##Katolika
##pampalasa
##pinagsasal
entang
##Freder
##naglili
##distribusyon
##Ray
##kuta
##Giovan
##monghe
##Antipolo
##kakaunti
##pangitain
##antropolohiya
oldo
tist
##10.
yador
##Crim
alyang
raming
##Ecija
##Yemen
##hardin
##maipag
##idinaos
##medalya
##Broadcast
##inimbento
##pagdurugo
##ekspresyon
##pagpapalaki
##SE
awis
uhol
##kuk
##tor
##Raha
##time
inhawa
##Bruno
##nilul
##sanli
##sisid
##malimit
##pambiyolohiya
osp
##Vat
##1964
##sint
irahang
##ekstink
##klinikal
##Justinian
##napalitan
##pagkakasunod
chu
iga
mona
##121
##IPA
##aut
##Bron
##Botan
##October
##Northern
isk
##Uma
##guw
##Ming
##Pasc
##Supre
##Diocle
##Partik
##hybrid
##iilang
##Liberal
##Popular
##algorit
##pagbili
##Constantinop
##tuberculosis
oman
seus
itiko
##nari
##Niger
##Malabon
##nakapagp
##Paranaque
##makaranas
##dokumentong
##magagandang
##eksperimental
##administratibo
##nakapagbibigay
asko
pekt
##Wel
##luk
ganang
itania
##tinutulan
##salaysaying
##sustansiyang
amer
emis
##11.
##Ate
##squ
##tiy
agana
##binub
##kalin
##kulto
##lutuin
##Binibig
##alikabok
##Territory
##baybaying
##negosyante
##tumatalakay
ars
agawa
uhong
##1957
##Cesa
##Ilok
##Mars
regasyon
##artritis
##umangkop
##kasariang
##pagpapasa
usok
##ork
sonal
##Cote
ultang
##Leban
##tugma
ematika
resyong
##Soviet
##mabisa
##plasma
##Nicolas
##nakabab
##persona
##atomikong
gro
##Bea
##asno
##tumit
##Byzant
papalagay
##kapansin
##sentimetro
##00
##Ev
##Abd
eptor
alitaw
ograpo
##pambi
##Barbar
ahulugang
##nadagdag
##Mauritius
##kalamnang
##kalayaang
##malalayong
##lingguwistika
hik
ille
rina
##dec
##atay
##reak
chester
raniwan
##bisita
##kambal
##gulugod
##nanguna
au
sana
##250
##Flo
uriin
##Togo
misyon
##Brasil
##Kaagad
##saglit
##katwiran
##nabigyan
##pagbawas
##nakasakay
##pagwawakas
##Tutankhamun
##kagandahang
inyo
##Hua
##Noe
ernes
irhan
##1952
##Alas
##Sini
##Anato
##agimat
##grabit
##Tagapang
##pagtawag
##Administr
##Europeong
DA
uez
##73
##lis
akpan
##1917
##Poli
##kaisa
##harmon
##Tunisia
##banayad
##tuntunin
##malawakan
##nakakalat
##trabahador
##Ku
##Vo
##Edi
##atas
##light
##morpo
##Malawi
##tumang
##nagpasya
##pangkimika
##produktibidad
sada
gawan
inger
uhula
##topo
mitter
uturan
##Casal
##Media
##masig
##nagtayo
##monarkiya
##Silanganing
mod
##Sao
##gor
aceae
##Bell
##Lisa
##obli
uction
##Torah
ulation
##nakaugalian
bik
zek
##Mr
dila
engo
##Gabri
##tapos
##Senegal
##huwaran
##bulutong
##embahador
##pagpipili
med
phi
sito
uzzo
urora
##text
##hangang
##malusog
##Dionysus
##pakikibaka
##sakupbayan
bolo
uhuli
voire
##Dati
##Erit
iliran
lalaki
##Coast
##arter
##teoryang
##kilometrong
##reproduksiyong
74
SE
##ci
ibouti
##baryo
##pisyo
##salaw
##duktor
##sundin
##pandiwa
##Djibouti
##ekonomiks
##kakaunting
##katarungan
##pinansiyal
##ekwilibrium
##reproduktibo
##kontrobersiyal
##ru
##Marx
##lima
##Canan
##paghat
pikasyon
isalamuha
##schizophrenia
uct
back
itat
##Dag
##Tac
##work
##yaon
##Benin
bensiyon
##Pascual
##kalakhan
##makatang
riba
##iss
##Gaya
##hamon
##koord
lisadong
##Lumitaw
##manirahan
##naglunsad
##Py
##Bic
##Cyp
##sta
##Amen
##Oper
##pato
anggalang
##tumatakbo
bata
##heo
unton
##Koso
uruang
##group
##Empire
##trapiko
##ginaganap
##himpilang
##lumalaban
##manlalakbay
##pangkabuhayan
kab
illo
##1966
##Time
##kaig
amalas
unasan
##2001.
##Papua
##palam
##Legazpi
##alitang
##iglesia
##pabrika
##pinagtatalunan
aloc
hian
kana
uban
##13.
wenta
##nerb
alaban
anahon
henyer
##pinip
##kaliwa
##binansa
##sangkot
##Telebisyon
##instrumento
##sosyolohiya
##istrukturang
##pinakahuling
AL
rum
##Kata
##Mini
##magne
##pemin
##plant
##polar
##Neanderthal
##napatunayan
##pagtataguyod
##mananampalataya
82
##1.5
oryal
##1968
##puke
##trop
ukuyan
##Feder
##biswal
##ibalik
##kaangk
##kritikal
##napiling
##humahawak
##rebeldeng
##gayunpaman
##makapagpap
##halimbawang
##pinakadakilang
redo
##abn
##saw
ester
gahasa
##Pulang
##insekto
##bumababa
##commercial
##Development
##pinakamahabang
oke
##NG
##Fuk
##noo
antes
sibol
##1933
##Anth
##2005.
##malul
hiwatig
##inteli
##kasukd
##kawing
irerekom
pektibong
##kapinsala
##sensitibo
##katanyagan
##panibagong
##alituntunin
akh
bius
##Alta
##Rock
umbayan
##mandar
##Hispano
##Atanasio
##Litwaniya
##pormulang
mus
##hil
##Power
iwalaan
ucation
##Ariano
##atraksiyon
##1959
##Rocc
mbuhay
##Council
##hanapin
##kasagana
##kumukuha
##makilahok
ash
kak
##mm
karyo
##Kari
##Tinag
##pinak
rasyong
##libreng
##naglaho
##estasyong
##ekspedisyon
orb
oyd
shi
mena
##Lak
##Tab
##top
inter
##Leone
##Pacif
##Timor
##buntis
##Ukraine
##sinasak
##Giovanni
##nakaharap
##Nagsisimula
##tagapagbatas
wis
band
gian
##lim
ights
##mili
##green
##Kosovo
##sulatin
hihiwalay
ungunahan
##patnugot
##Partikular
##engineering
ruba
unal
rench
##1943
##naro
andard
##Josue
uhangin
##Confuc
##Isabela
##banyaga
##palapag
##primado
##Afghanistan
ats
chae
upok
dalaw
##1936
##Paco
##pinapa
##makakap
##biyolohiyang
95
roid
yant
##Bet
##mesa
##pinar
##County
##Otoman
##patron
##pananalig
##pandaraya
##residente
gata
##Ichi
##band
##suot
galugad
##Aurora
##Julius
##Prince
##pagsang
##kaligayahan
##pagpapabuti
##magkakapatid
##magkakasunod
rila
ures
##wal
##Swaz
##kaan
##nuno
atihan
zation
chelles
##Sandat
##maipap
##martir
##kakaiba
##Binigyan
##nagtipon
##Swaziland
##arsobispo
##dalubhasang
73
vest
##Vis
##Russ
##manin
##tipan
##Bangko
##Lebanon
84
##Stef
stasan
##Julian
##Sinang
##Banglad
##Nordiko
##ikaanim
##kagawad
##ortodok
##Kalayaan
##hangarin
##kilalanin
##magsalita
##pinaunlad
##pinakakilalang
ladi
otas
##nail
iyerno
ressant
##pagdud
##Sumunod
##Ginagawa
##kompleks
##Mesopotamia
##nagpapatakbo
uru
bago
iran
##Gas
wanda
yanang
##diber
hulugang
##dobleng
##lupalop
kripsiyon
##bariasyon
##bulubundukin
##pinanggalingan
RC
##mel
awala
##@-@.
##Buhay
##Democ
##Valle
##monop
##Burundi
##merkado
##terminal
##sandatang
##Mediterran
##naglalabas
##pagsuporta
##pamumuhunan
##Ut
lain
##rab
##Salle
##napup
##Sapagkat
##bakunang
##mandirigma
##pagsasarili
##nagsasariling
##If
hiwa
##Fam
damin
naten
tures
##pest
##Inili
aliling
##inutos
##Misamis
##binabasa
##sariwang
##Seychelles
##pagtanggal
##pakikilahok
##pinapayagan
SC
rog
##eo
nato
##enta
##ting
##homop
##puson
umaling
##Ilokano
##diyosang
omunikasyon
##nangunguna
##Kob
##Mom
##Not
##Woj
inata
kahan
##Jing
##umuwi
##kalaka
##Bagamat
##lumawak
##dumaraan
##magaganap
##Christopher
##anatomiyang
##imbestigasyon
##tagapagsalita
gug
rile
##Nok
##say
higit
##part
##Siber
##entab
##limam
##Rwanda
##daglat
##isulat
##kandila
##maglala
##astronom
##napatunayang
abol
soft
##Bit
##Shak
##tsan
##music
##bacter
##nakiki
##abogado
##gerilya
##kaliwang
##kumbinasyon
01
adu
udy
uage
##Esp
abago
##cont
##prag
ibabaw
##Gabon
##likha
##Pumasok
##Western
##Japanese
##liwasang
##Paaralang
##teolohikal
##antidepressant
atak
amine
##this
##Malak
##santong
##estilong
##manonood
mag
itay
##Cos
inaryo
sipsip
##digri
##wangis
##Naganap
27
200
##USSR
##siru
##tore
##1,000
##botan
##Tinong
##limamp
##naroon
##Eritrea
##gaganap
##bakteryang
##Wikipediang
##CC
tase
range
##Babae
##unyon
##obaryo
##100,000
##Brother
##bugtong
##Theodore
##pagtanaw
##Microsoft
NC
andi
ibat
odox
tyla
usga
##Akhe
##Group
##nagbi
##sunud
##Mangga
##aalala
##daangbakal
cti
##67
hito
##LGB
##Baha
##This
##temp
##Shang
##pagpasa
##kasamaan
##soberanong
##kaparusahan
##PC
etus
##Ehr
##Dala
##adap
##lamp
##2012.
##braso
##Teresa
##Bansang
##Edukasyon
##pagsalungat
##ebolusyonaryong
ues
##140
##htt
##Punt
##first
##kalip
##langaw
##nagpup
##pinyin
salungat
##Burkina
##Militar
##quantum
##pinalawig
##itinanghal
##mahahabang
poc
yog
ebes
##Lou
##midy
##online
##Navotas
##ikalito
##matatawag
##sambahayan
ube
yun
##Fr
otte
##suk
##Binag
##Fried
##Olymp
##kapap
##kainin
##Josephus
##nakasentro
##nakakaranas
##Og
##Sop
lagay
nardo
##Baco
##Pati
##Sele
##will
##pangd
##nanaig
##transis
##pinapaka
##kaalamang
##pagkabigo
##eksklusibong
##naghihiwalay
uny
viv
yena
##Son
##ora
atika
bawal
kitaan
uthern
##Jones
tatlong
##naipap
##Country
##mukhang
##panlikod
##Bangladesh
##matematiko
##Ipinagdiriwang
TE
bre
bile
fied
##Sig
##neo
imbak
utian
venti
##Mura
##Myan
##tagal
apatang
##10,000
##usapin
##Myanmar
##Pagkaka
##natukoy
##pagtata
##panulat
##espirito
##Sinimulan
ten
ines
arama
giore
##fran
kontin
lohiko
##Emper
##Titan
asyahan
##inuuri
##Babilon
##dumanas
##paggana
##Liwasang
##Akhenaten
##atensiyon
39
IC
##600
##Nait
##tone
##kabab
sinukob
##Arthur
##bagama
##Estadong
##dinagdag
##kabayaran
##pagsasabi
##kritisismo
##paglalayag
eli
##mir
##Faso
##kaban
##Palaro
##pagdami
##Sampaloc
##Lansangang
##reperensiya
##teknolohiyang
##Ly
ming
ugay
##epidem
##kapasi
##produc
##Mountain
##banyagang
##Kailangang
##reaksiyong
##pagpapatiwakal
##Key
##tet
isong
lione
##look
tiling
##Dapat
##Tangga
##Cananeo
##ipinasa
umungkahi
##nagebolb
##paglapit
sanggalang
##Silanganin
##malakihang
alot
##Umi
##etc
latag
##1956
##Book
##Karl
##Nais
imbang
##Bohol
##mapup
##Binondo
##pinakamalawak
sios
##Seo
##far
villa
##sele
##Korte
##Laban
##pinai
ibilang
yayahan
##Armenia
##Halalan
##plastik
##Natuklasan
##sinasalungat
cau
elda
##Bob
##amo
bello
trato
upaan
##Memo
##ping
##puro
radong
toriko
##Buwan
##eigen
##ilala
##tekst
##sakuna
##Kultura
##dioxide
##hormone
##empirikal
##Mauritania
##naghiwalay
##2017
##down
alisyon
##paraon
upaktura
##napunta
##particle
##emosyonal
##kabalyero
##talumpati
##pagsasalinwika
##kontemporaryong
uet
ahid
laro
rero
wahe
##Aya
##kami
sadong
##lumubog
##Paminsan
##equ
rison
##Tome
##asul
##tuyo
##press
##pisiko
##kahinaan
utch
zono
asong
##anap
##kuko
##Harry
##Party
##pagkit
salaysay
##lalagyan
unikasyong
die
anes
edes
imok
mont
tics
ungad
##Gene
##tono
akibat
##palik
##mastur
##Wilhelm
##binatang
##imbentor
##humaharap
##depinisyon
##nanganganib
##sistematikong
37
kip
##su
##vi
##900
##Kos
##Sul
##che
inado
##lata
##line
hedrin
rehiyon
##Enrile
antayang
##Kalusugan
##represent
##Macedonian
##lumalaking
##pagnanakaw
burgo
horos
##News
##Orth
iwasan
##burol
##sapin
salanan
gagaling
nolohiya
##uusapan
##panghihina
41
aks
nik
uty
##af
##Rem
##aan
##Noli
##polo
##marating
##Koreanong
##Pagkabuhay
##Panginoong
##inhinyerong
cas
##Zi
##aming
##censo
##Prusya
##damong
##kawayan
##magkaiba
##babasahin
##pinangungunahan
edy
kayan
##1938
##Hiro
##head
##litur
nalista
##Equato
alamanan
##tulisan
##lohikang
##nagagawa
##Estasyong
##sakramento
##pinakamababang
lyo
etho
mond
ways
##Des
##Tob
##Taft
##wina
resibo
##Presid
##Russell
##executive
##kapapahan
##tinatanaw
##nagbabagong
PO
uco
urn
##Ok
ubin
##cos
##git
##Visa
##trah
aryang
edonia
##Chern
##Museo
##kampo
##lesbi
##Aragon
##aalaga
##papuri
##Salamba
##apatnap
##katalin
##Principe
##pagtanda
##pantubig
angka
lason
##Munt
utasin
##kapat
##maili
##alahas
##natamo
##Wojtyla
##kaurian
tograpiya
##armadong
##Billboard
##kapasidad
##matanggap
##naitalang
##publikong
##Dem
##Guo
##Hub
##Web
lavia
##Kasi
##Tong
##film
##play
antala
uligsa
##Elect
##Galen
##ampon
##nerbi
##humawak
##isahang
##bulwagan
##Masoretiko
nd
abag
kuna
zine
##cer
banta
##Bato
##puri
hiling
##Bulga
##Freud
##Trade
##Imelda
##pamala
##pumatay
##grabidad
##katuparan
##masidhing
##paghirang
##masasabing
ime
##bl
##lap
##Peru
##litid
##global
##teatro
##gamutin
##apelyido
##mababasa
##tinangka
##Pagkaraang
##nagbabayad
##Deuteronomio
##pagkakatapon
##16.
hismo
##kron
##rest
##Massa
##tabla
riktong
##Somali
##signal
##batasan
##etnikong
##Isinasagawa
##makasalanan
##sangguniang
##dependensiya
##kontribusyon
##napakalaking
##pagsasalaysay
##Cay
##Sic
##magm
alyado
##makuk
##masak
##panga
##biyaya
lakihang
##Tristan
##binigay
##inaalok
##matuwid
##pagdaloy
##bariabulo
##pagtalakay
##pangingisda
##Hok
##aka
##ext
bales
holic
urcio
##Sale
##udyok
##iwasan
##neurot
molohiya
##Chinese
##Anatolia
##eksperto
##monasteryo
orus
stic
##kid
walat
##Adam
##tend
##primit
##Negrito
##Binagong
##Piemonte
##pagpipinta
##kababalaghan
saan
bahan
lagak
##Niel
##Yang
amayan
iwalang
##hinang
##Liberia
intindihan
##kumikilala
##kontekstong
isio
sias
##17.
reong
ukosa
bantog
italya
##kuwad
##Cyprus
##kondom
##matiyak
##sangang
##lumilipad
ids
##CP
##ly
##Arc
##1927
##Kamp
##sugo
##Clark
##Porto
francia
##Biblia
##Batasang
##Pagdating
##natitiyak
##itinakdang
##Penafrancia
81
93
##PN
asio
##1,2
##Apat
##Cort
##mist
wealth
##Magsa
##other
impalak
##magnet
##aangking
##nakapang
##tumatawag
laus
##Sky
anood
##2018
##lead
##ingat
##kumuk
##patak
##Basket
##katabi
##taglay
ilosopiya
##akademiko
##rehiyonal
##Technology
##biseksuwal
##Wa
ardi
ukin
##Laos
##also
##Penins
##gintong
##pasukan
##Anderson
##Zambales
##katambal
##pinakamag
##Broadcasting
97
atsu
##Aene
##Luna
##kahon
##sekund
##Mayotte
##Severus
##kristal
##munting
##sinusukat
##ipinatapon
##pagkawasak
##pagpapalawak
elyo
##Alc
##krip
##sedi
uwiran
##Wales
##naili
anganak
##Domingo
##sagradong
##Equatorial
##nalalabing
##pagbebenta
##paghahayag
##naghihintay
##Constantinopla
edad
ents
udyo
munic
##Swit
siping
strong
##House
##ikono
##lubid
##sinan
ference
##munggo
##Records
##isaalang
##espesiasyon
tern
##Hon
##trak
##trip
##Huwag
##lupon
##nagdi
##itatag
##Nuestra
##country
##Kilusang
##magsanhi
##Asensiyon
##katuruang
##pagkaantig
##komposisyon
##oportunidad
##pagkakahati
cs
hot
ibay
##Ras
##tad
##whi
##wit
nasco
vello
##1914
##Alam
##Ever
##Gaga
##Scott
##lingg
##Claudi
##Galile
##nucleo
##biyokim
##talento
alastasan
##Catholic
##paghahatid
##penetrasyon
late
##Dok
##Len
##semi
##buwang
ugpungan
##Hapunan
##alkohol
##nakalaan
##naniwala
kapangyari
##Sebastian
##aksidente
##kabanalan
laan
ship
##000
##Ern
##Yan
##Anne
##lala
verage
##Macra
##Milan
##Vatic
##aling
##Kabite
##kalipa
##solido
tulungan
##tinanggal
##katunggali
##Commonwealth
##importanteng
arl
hio
ters
##Psy
kuran
ungin
##Royal
##boses
unction
##plural
matikong
##Ikaapat
##naroroon
##inilibing
##makahanap
##Gayumpaman
##Tagapangasiwa
mpa
rak
idea
mari
##Rap
estro
udies
##1958
##Vati
##Sosya
##ensay
##influ
babalik
##Vatican
##lumagda
##pangamba
##Monastero
##nabawasan
itas
katan
##Term
mikong
##resol
natural
##pinana
##Tungkol
##Byzantine
##kasuotang
##Nagbibigay
##nagbubunga
TA
uum
hell
##gug
##let
masya
umato
vince
##acco
##naid
alisay
imento
wagang
##Roero
nanakaw
##kalatagan
##Nagpatuloy
##nakikilahok
bul
##SSR
##dog
atory
ciano
##Sahr
banghe
##Kolom
##anino
##Houten
##bumisita
##magtatag
##hidroheno
##kalakalang
##pagpapasok
##Maharlikang
##konstitusyonal
alab
inae
olar
sics
tiro
##Sea
itibo
##Tanaro
##mabang
##manini
##nagdud
##usbong
sinasyon
##madilaw
##naghari
##Mahayana
63
otus
toku
##ili
##Xian
##Tasio
##Senora
##palaro
##Villano
##iniutos
##maisasa
##puhunan
lilingkod
##Southern
##biolohiya
##ideolohiya
##pagkonsumo
dex
ugt
##ret
oglio
sanga
unity
##1899
##moti
ugatan
##3,000
##Cuneo
##Jeronimo
##ipinasok
##pagtigil
##pagbisita
##Nakakatulong
orr
##Suk
##Ales
##aber
Arthur
alinga
bibili
##Seoul
##lason
##ipinako
##rehimeng
##iniuugnay
##historyador
##ipinagkaloob
##mapagmamasdang
een
ume
##MA
teng
uyog
##off
ature
sahan
usios
##foot
langit
##2000.
##Cunha
##gramo
aturang
himasok
##inyong
##kabuti
##kanino
estasyon
##paputok
##magtalik
##katamtaman
71
kla
heim
##Reb
lagas
##Habs
##Nari
##Salv
##cent
##Albay
##akusa
##kolek
##labag
##dumami
##pinagp
##Version
##Gumagamit
##makalipas
##sasabihin
##ipagtanggol
##pagdidisenyo
##tagapamahala
##napapaligiran
##sat
atras
##1919
##Real
##Little
##Calamba
##alyansa
##kahugis
##maluwag
##marinig
##impiyerno
##Bernardino
##katalinuhan
xi
##~
esco
ugun
vine
##Rab
edyer
ional
##Benj
ianong
##pulmon
##Benigno
##Rosario
##Sahrawi
##natupad
##pribile
##ketongin
##paglutas
##kadiliman
##Katutubong
##EU
enni
##Dor
lanta
##1932
##1937
##1963
##akto
##euro
alakad
##Tower
##hatol
##modern
##pagkas
##nakaupo
##tatlump
##nakababa
##protesta
##Frederick
##pangulong
##magpakasal
##paglilinis
##makatwirang
##pinamahalaan
##sinuportahan
tes
##Fat
##Arts
##Daan
##Lapu
enberg
##bahagya
##kalsada
##matapat
##talababa
##entablado
##Commission
kha
vas
##Eug
##cha
atiya
yenda
##Alba
##Carl
##Magka
##Pauli
lesiang
##Alaska
##minamahal
##Du
##Aso
##Syn
##Tho
##Tol
##pik
##dest
##main
##supp
##Antar
endaryo
##Castig
##Sumasa
##neuron
##pwesto
##membrano
##pangseks
##Jerusalem
##monoteismo
##rebolusyong
##Departamento
##Deb
##Esk
bugan
lawan
##1910
##akin
##Ikina
##aspek
##numer
apangan
siskano
##Venezuela
##seryosong
irerekomenda
lil
##jo
nado
limot
##Kaiba
##della
##saksi
##piyesa
##rayuma
##tignan
##Masbate
##membran
##parirala
##pulmonyang
##panggagahasa
maw
gaan
itad
orth
##Vit
##red
ibaba
ahalang
##econom
##nahuli
##Monggol
##Reunion
##Orthodox
##halalang
##nagnanais
##partikulong
##pagpapalagay
68
##Ash
##Din
##Ric
##Viz
peras
##First
##lamig
##lehit
##solar
##babaing
##naaayon
##insidente
##koneksiyon
##makatanggap
##pangsikolohiya
uktok
##walo
lulumo
##bangk
##hapdi
##tanaw
##Kodigo
abanggit
larasyon
##Pederal
##pagbabasa
##sanlibutan
##stratehiya
##napakaraming
agn
##DC
##XX
##Jin
##Nom
hanin
##Gard
##Plum
wayway
##Otomano
##Pradesh
anumbalik
##likidong
##nagbunga
##pagpapas
##MacArthur
##Yugoslavia
##propesyunal
##eksperimentong
OC
ude
olat
##Mei
##belo
##dyip
##kasu
inlupa
##Galer
uklasang
##baywang
##magaling
##makatoto
##Muntinlupa
##magpakamatay
##cam
##biro
##free
##keso
##Cesar
##bumub
ephrine
##therap
##Germany
##Mabilis
##Stefano
##pamalit
##Pictures
##hinihingi
##operasyong
##pinagkunan
esi
ush
rido
zyme
##Cel
##Tet
netiko
##Conso
##maimp
##tamod
##binili
##napasa
##pabigat
##aspetong
##magkaugnay
##elektroniko
##pilosopikal
Str
##Pu
##Tek
##oli
atake
rikit
##Mito
##Pagt
##kore
##sult
##Henri
##Ibini
##Kipot
##pakan
mentong
##Concep
##Indust
##Ivoire
##Norman
##dulang
##kahanga
##lutasin
##moderno
##Pangalan
##glandula
##Fernandez
##pagnanasa
##pinaslang
##kayumanggi
##mangingisda
zei
##Wu
loyd
##fre
amaka
yuhan
Struck
##Dutch
##Azerba
##maisagawa
##Pagkalipas
##StarStruck
##lansangang
##naglalayong
abe
ced
not
atar
##Vig
##here
ground
##opera
##bumoto
##respir
##hidwaan
##hiniling
##pamamahagi
##Castiglione
##manggagawang
haw
##pl
ause
inog
velt
##ape
##nagw
##Magel
##natur
##Vienna
ensibong
##kapiling
##kodigong
imong
##Cari
##Marc
stasis
##Berga
##Teodo
##bukid
##ilipat
##sampol
##bagoong
##Kautusan
##ahenteng
##mabisang
##tawaging
##Villanova
##gaganapin
##nabawasang
##nagtatakda
##pagsamahin
##monoteistiko
olus
##Ast
uyang
##Ther
##gulo
##Roose
##kakaw
ubukang
##ensaym
##tabing
punsiyon
##Perseus
##Stephen
##Biyernes
##Caesarea
##Mababang
##nagbukas
##pagpapap
##pagtatag
##Aristotle
##kahusayan
##magtrabaho
##regulasyon
96
dic
yab
ulam
wigan
##Bern
##Land
##Myce
##ikin
adlang
##deuter
##komiks
bibigyan
##Batasan
##Hinggil
##Pilosopo
##Roosevelt
##Dependensiya
##ft
##sq
odhi
ophy
tico
utot
##Has
##Kyo
encio
sakin
yunan
uluyan
artment
##center
##Tiburcio
##libangan
##paghinto
##Sacramento
##sangandaan
##maharlikang
##pagtatantiya
##pinagkukunan
ngi
war
obiko
##Line
##inog
##nars
bangon
##Sinus
etikang
##ritong
##suriin
##Azerbai
##Pacific
##Vaticano
##kwadrado
##magkamit
##tagagawa
##mananayaw
##sumasalamin
##espesipikong
##isinasaalang
##impluwensiyang
##Up
sive
##hust
himlay
##Peroe
##Salmo
agdagan
##50,000
alibutan
##kinukuha
##pinalawak
##paghahangad
##tinatalakay
##lb
##Gat
##Hil
##exp
untok
##Lake
##Mago
##Post
##paki
##Burma
##sakay
##nagkat
##humalili
##panghuli
##pinapatakbo
##pinakalumang
oe
lite
omon
##Hid
state
##Doon
##Obser
##akawn
etsahan
##French
##musiko
##termod
##angking
##malupit
##nanging
##Magellan
##katoliko
##paghingi
##pneumonia
##pinakakilala
##alongpunsiyon
##estimulasyong
49
##AI
imar
mbit
ulga
##Hesw
##2013.
##armas
##prodyus
##puntahan
##Kolombiya
##ginampanan
##nagtataguyod
##Ken
##1922
##Yuan
atikos
##hiyas
##hubog
##Niseno
##makakat
##takdang
##labanang
##monoamino
##pangkapaligiran
lal
dish
zech
##Bap
##Dur
berto
stihi
##Camp
##kalo
bagsak
##Chang
##Lewis
##deter
##school
##tisyung
##buhangin
##katauhang
##kinondena
##kasukdulan
##nagbabawal
##Somalilandiya
##demokratikong
##HT
iton
##Aut
##Mir
atris
himok
##Gonz
balita
##Josep
##Paano
##panli
##liping
##dalagang
##maiksing
##Consolacion
##industriyang
##Ibn
antas
ukala
##Hard
##left
andina
##bulat
##nanin
##Norway
inungaling
##Magsaysay
##pagpapatakbo
chn
##Za
dama
##war
##pilit
##tumor
##Atenas
##kasiya
##Gabriel
##angkang
##tensiyon
##ikapitong
##elementarya
##pagkakasundo
get
uly
##Ya
mund
oras
##Sut
##Tai
osito
sters
##micro
##yaong
##Askena
##himala
##umayon
posisyong
##Airlines
##orkestra
##prodyuser
##presidente
##Repormasyon
##makabuluhang
##magkakahiwalay
Or
tu
##Thi
asahan
atitis
##nabub
##orbit
##Benito
##paanan
##Lorenzo
##nagtungo
##Maximinus
##suportang
##reputasyon
##Puntlandiya
##orientasyon
oder
upig
vity
using
##Mark
##prog
##Sabah
##rekon
##kahang
##solong
##patimog
##pagmimina
##talambuhay
##Dependensiyas
less
sida
vere
##419
lassi
##Gang
basang
ilidad
##Mauri
##Menor
##Nikep
##Ponte
##akong
##kapal
##lobong
##unyong
##Mahigit
##balyena
##basahin
##palayok
##tagalog
##Montaldo
##Nikephoros
##neurotrans
##detalyadong
cch
##Pav
##UTC
ector
##haka
agalan
ambang
##Kapwa
##hapunan
##itinaas
ibersaryo
##pinipili
##mabubuting
##pakanluran
##pangkalinangan
hano
##ero
##gun
aglia
ahayan
##Berna
##lapad
##separ
okodigo
##editor
##nasira
##uuring
alopithe
##likhang
##mababaw
##Salvador
##dinadala
##tinanong
##nakababatang
nip
solo
##Pom
##nya
akouz
##Mino
##kari
##digit
##komed
ikadong
##komers
akouzenos
##pasulong
##maglakbay
##Islamikong
##sansinukob
##tumangging
##itinatakwil
##pagtatalaga
ananampalataya
##Kantakouzenos
##nakapagdurulot
61
##Maz
##cons
onomet
unsiyo
##debos
##teles
##ekwador
##hiniram
##taludtod
##palumpong
ahintulutan
##idineklara
##pampulitika
##masturbasyon
64
SU
ane
vey
isel
##pup
##which
ahanang
##mawala
##mitong
##tabang
##alamang
##malubha
##payagan
##tuwiran
##Askenasi
##Irenaeus
##kumpanya
##dinosauro
##disenyong
##katimugan
##kautusang
##nakatakda
##tanghalan
##kategoryang
mpi
masa
tigas
##Nila
##mask
##more
ardiya
ometro
##Costa
##Felix
##hotel
##tinak
##adulto
##telang
##utusan
##kantang
##kontras
##Florante
##Hospital
##bangkang
##piniling
##karugtong
##romantiko
##apostoliko
##pagkabahala
##denominasyon
##var
##Abra
##Amor
##Joan
##Nyor
##musk
##black
abayaan
##kitang
##saysay
##alinman
##harapang
##inhenyer
##pagpapag
emokratiko
##Isinilang
##bumabalik
##nararanasan
els
onso
##Pit
##som
bidwal
kanulo
##Komun
##Antioch
##Benguet
##ninakaw
##sugatan
pikasyong
##konduktor
##makakapag
##peryodiko
##elektrikal
##Malakanyang
##metabolismo
kon
tial
ugpo
ulid
##reb
##Life
##Niko
##That
##inyo
##Koran
##Natat
##Alfredo
##gagamba
##pulutong
##yumabong
##Kapisanan
##Tanggapan
##kalamangan
##kalendaryo
##Dy
egla
trum
##Lis
##Hill
##blok
##gona
##lolo
alawak
obomba
##Hipona
##Economic
##Memorial
##prokaryo
##heolohiya
##matanggal
##Diocletian
##proporsiyon
##Ol
##Xi
ehas
##Phy
##kit
##kul
##1916
##Aure
##Ikaw
##koro
##nguni
rubahan
kukunang
##gumaling
##pananamit
gn
nata
##700
##Are
##ult
ulado
##Fort
##Momo
##jazz
##them
dikong
##nalul
##Denmark
##Kalinga
##Pentate
##matamis
##umaasal
##Matinding
##kakayanan
##maiikling
##pangsubok
##natatagpuan
##silanganing
##napagkukunan
uwis
ubali
##mini
eplekta
linlang
##Laurel
##mammal
##litrato
##pangkar
##isinaayos
##kaangkupan
##konserbatibo
62
dot
##oo
eldo
etts
sily
##Aph
##Hus
##she
##Geno
##Isma
##beke
ahamak
katura
##Hudea
##Radio
##lamok
##salam
##isyung
##Ireland
##Senador
##magtayo
ekonomika
##akademiya
##Pamayanang
##Kristiyanismong
yya
##ls
yana
salin
##akti
##igin
##bulag
##desig
##sinop
##Sinisi
##sinago
##masigla
##pilohen
dalubhasa
stansiyang
##bertebrado
sesa
##dan
olate
##Cong
agalaw
##Bangk
risidad
##Maliit
##bolunt
##nasyon
##Marindu
##nukleyo
##sumikat
##Inangkin
##masayang
##guwardiya
##kapinsalaan
##pagkakasakit
ex
##61
edow
eppe
##Lic
##mos
##psy
##Penn
##magkapar
##nakitang
##Massachus
##konserbatibong
NG
raw
##AT
ilib
##Kir
tador
##naib
erbang
##hinua
##nanun
##Kinuha
##Serbia
##pangla
##ganoong
##inuming
straktura
##panuntunan
she
ches
erna
##Ais
##Bio
##Nad
awasa
dista
kabit
##Fres
##Test
##Wood
##ulap
##uuri
ratado
##Siyam
##Young
##monot
##nirer
##Barbara
sidenteng
##apektadong
##ebolusyong
##ekumenikal
##makikitang
##inhinyeriya
##komunikasyong
##panunungkulan
pr
uovo
##Rog
##uni
sanay
##Caro
##Posi
gement
##child
##pasya
negosyo
usiness
##aambag
##kudeta
vernment
##paghina
##November
##malalakas
##sandatahan
##mekanismong
##58
unya
toryo
##XIII
manuel
ritong
##Vladi
##Karibe
##estatwa
##lubusang
##kasamahan
fan
##93
##tu
iner
kdal
dasal
meral
nuovo
##Know
##akay
##king
##ekstr
##hinuh
##Ganito
##pating
##Sinundan
##Ekonomiya
##koalisyon
##pagmamana
##talakayan
sayt
gawad
linga
##Egyp
atuloy
##mangh
bintang
##church
##Sumagot
##SR
yain
yama
##Bec
##iri
##niy
##tol
sanin
uming
##chem
hinang
##Cleop
##biped
##fungi
##lumul
##nakaa
##bonobo
##impant
##kasigla
umangging
##temporal
##salinlahi
##patimpalak
69
##GN
##gi
kins
quio
##Gib
##1954
##Isla
patong
##Czech
##Shari
##berde
##degri
##hipon
##Israeli
##balanse
##diyosan
##nagsama
##sinunod
##pagpayag
ahalagahan
##Hermaniko
##Katarungan
vy
elf
sor
ties
##19.
##Wic
##1861
##Piet
##puli
lature
##Bisan
##rosas
##selek
##tulin
naparte
unguhan
##pagpep
antasang
##Nilikha
##matapang
##tagsibol
##kaasalang
##Sanggunian
##Castelnuovo
##pinakamahalaga
reh
##?.
akma
saki
vich
##Ich
##mac
likom
##anem
##Indus
##Kapam
##Marce
##Pilar
##Balita
##enzyme
##pagmum
##people
##unahan
##Basedow
##Sistema
##soberanya
##ipinapasok
pha
rix
vir
zzone
##Tesa
##anal
##inap
##into
##pain
##diyag
##drift
##lakad
##level
mamasdan
##Arabong
##Araling
##Spanish
##Basilika
##makapagt
##pagpunta
roduksiyon
##nagpaalam
atipikasyon
##sibilisasyon
ykh
##Gl
caro
alagi
pound
##Bure
##Reich
##mental
##masakit
##protons
##Semitiko
##nagsulat
##seksiyon
##inilalabas
##pagkakalikha
##Massachusetts
yx
##ku
asso
uksa
##Bil
##Kabi
##Muse
##Nili
##norm
umaong
##mithi
uhunang
##Inglat
##Kinaka
##Airport
##pluwido
##puwedeng
##Binigyang
##Manggagawa
##py
bury
mata
##1955
##hanap
##maila
##30,000
##Benjamin
##nerbiyos
##sisidlan
##tribunal
##umusbong
##katamaran
##magkasama
##nawawalang
##emerhensiya
##magkakatulad
##pagpapatunay
lao
iksi
samp
##Amp
##ate
##1800
##Pamp
##http
##inim
##Asian
##Times
##antis
ingatan
##alaman
##mamuno
##tabako
##eskolar
##mababago
##ginawaran
##Concepcion
##hinihintay
##pagbanggit
##pagtatrabaho
55
mall
mium
##Mit
##pip
endal
##Hero
##Khan
##LGBT
andong
hawang
zerland
##aasawa
personal
##Tesalon
##maalamat
##musikero
##Panitikan
##Switzerland
##sumasangkot
##pampilosopiya
##Ru
stis
sayan
##Phil
##leng
##piloto
##random
##kalansay
##kuwartel
##sinasanay
##sitwasyong
but
myo
##lak
##new
##Area
##Noon
##bula
##pahi
##past
lekula
##1990.
##Neder
##Opisyal
##nuclear
##paglaho
##abstrakto
##inangking
##nilikhang
##biyokimika
##nauunawaan
##romantikong
##sed
##Hana
##Puno
nesian
##namana
##demonstr
##mikroskopyo
##makakatulong
unat
##Joa
##hand
pangan
##Thera
##subdi
langhap
##naisip
##sungay
##Sanhedrin
##pananatili
##Sandatahang
##nakatatandang
rup
upe
##nor
##Base
##Club
##Polo
##Saksi
##reper
alooban
##buntal
lamasyon
##Basketball
##kakayanang
##napilitang
##pandarayuhan
OP
tee
arat
##Tel
verse
##Datu
##Komp
##arit
##guni
##Campo
##Nokia
lohikong
##Claudius
##disyerto
##intelekt
##nagsalita
##patunayan
##mikroorgan
##kaparaanang
anth
bosa
iliw
##Sek
##Tod
gador
irman
##Perm
##life
##saya
sipiko
##Galli
##major
##nuclei
##Chernykh
##Galerius
##magbayad
##daambakal
##imigrante
##nakapipin
##Malawakang
##Marinduque
##anibersaryo
##mamamahayag
II
cks
dona
mbak
##Cin
##gal
ampus
cular
##Sari
##Siri
##kune
##erehe
##layong
##naiwan
##tumatag
##Pakikipag
##magresulta
##eksplorador
##pinaghalong
##transmisyon
iod
unn
layt
##MRT
mouth
##Assy
##Wang
##Binan
##Numer
##ensik
##Naiiba
##hating
##talang
##Service
##magbago
##pintaka
hensiyang
##balitang
##kaakibat
##kakilala
##kapantay
##makapasok
##ekonomista
##pagpapadama
31
ds
eke
##bok
##fem
awagi
##Hono
##Ivan
##Jour
##tsaa
atingin
##Rodrig
##itsura
arusahan
##ganyang
##kalungk
##malaria
##pansing
##paghatol
##hinikayat
##limampung
##matugunan
##nagtatala
##nagkakaiba
##pagbibitiw
FC
##Cuc
areha
valle
##1951
##Emir
##Slav
##Khmer
##Solar
##Evange
##public
##Mariano
##yumaong
sangkapan
stelasyon
unggalian
##kabiguan
##Ipinangalan
far
kami
ugao
##Out
##Boli
ahilan
ksihan
##hirap
##bansag
##screen
##Lumabas
##habitat
enclature
##sinoptiko
##pananggalang
##pagpapagaling
tig
uit
omal
riks
##Lud
ampas
illus
stiga
haning
##Guang
##hapag
lawakan
pastang
##hinuha
##magbub
##Siddhar
##karwahe
##katangi
##nagtuloy
##prinsipe
##Bonaparte
##Education
##Gregorian
##pinagkaka
##kompuwesto
##parlamento
ape
apong
##Berg
##kuma
oranas
ubhang
##hyper
##paral
##Espana
##dakila
##punung
yolohiya
##Tangere
##inilaan
##pinakap
##sinunog
##inihanda
##almoranas
##depression
##kalungkutan
##pagpipilian
##pribilehiyo
##pinakamalakas
time
##Suc
##Anan
##iron
##nobe
agisan
gawing
tikulo
##2,000
##akala
##kalup
##mabib
##mamaya
##mortal
##second
##Ikalawa
##turismo
##trahedya
##tanggalin
##matulungan
##pagkapukaw
##pagsusulit
ints
##Cri
##Imam
##maya
##sine
aduate
metika
##Arama
##Atlan
##homoo
arangal
urasyon
##ibinub
##platap
##pagtayo
atehiyang
##Hebreong
##ikasiyam
##telepono
##nutrisyon
##Kapayapaan
##Nakikilala
##panghuling
##pagtatanong
##elektronikong
##interaksiyong
alim
##20.
##Ave
##Fos
thesis
##Recto
##iiwan
tohanan
##Kazakh
##lantad
##mosyon
##patpat
##presid
##librong
##makinar
##umurong
##Franklin
##episodyo
##pagkabig
##iniksiyon
##nalathala
##patriarka
##lalawigang
act
lave
##dop
parta
##fore
inahan
##Kampo
##Stock
##synod
lismong
##Jehova
##alamin
##nakapa
atwirang
##nagtala
##nahawaan
##repormang
##tagamasid
##pinagkunang
##tinanggihan
uod
##IS
seng
uoka
##INC
##Tas
##ste
##tay
kasal
##Alad
##bomb
##opis
##1980.
##Bukid
##Patay
##Akadem
##Damian
##yamang
##handaan
##siruhan
##pagbalik
##nakapagpapa
##makapagparami
fal
fin
##aay
##1870
##Samo
litaan
##Urban
##epiko
kretong
##pagkak
##simple
##Mycenae
##gorilya
##kasagsa
hahawakan
udikatura
##Sangguniang
##tagasuporta
##pangkaisipan
uca
urs
arna
ffer
ires
##alay
##code
##poot
##sati
##Likas
##grapo
##Apollo
##Tumang
##matalo
bibigkis
##Keltiko
utasyonal
##pagtaban
##Kahariang
##pagkaakit
##praksiyon
##inaangking
##magkapareho
##manganganak
##paghihiganti
##Ye
aker
hoka
##two
chine
laxis
##Doug
##Hini
##Nina
##only
##tsok
##Brand
esearch
pektrum
##Bisant
##matang
##saging
##sindro
##Tumango
##debosyon
##kalalang
##petrolyo
##Kasunduang
##pangasiwaan
quez
ylon
emann
teles
##Fair
##kond
##mest
ibalik
upiter
##dangal
##tumutol
##kaanyuan
##kapitulo
##reptilya
##reseptor
##Macedonia
##malalaman
##nagsasanay
##konstelasyon
iller
##Irak
##kred
##Medes
##Navar
##misyo
##museo
##baseng
##paleon
fication
##Kretase
##tagpuan
##Alessand
##pagpapako
##gumagampan
##nakatuklas
##manuskritong
53
kob
loy
nag
sima
##Cher
##Pagp
##akma
alingh
##Belen
##Pangh
##diyam
##Ekonom
##Origen
##Sergio
##Watson
##kataas
##Persiya
##Research
##pamunuan
##kalinisan
##isinalaysay
##paglilimbag
kuw
##aer
##aya
ellow
zzolo
##Puti
##naki
##show
handog
##2003.
##Danes
##Sasak
##duwag
##eduka
##huminto
##panglipunan
##pagsasaalang
buti
yeta
##Ano
among
indak
##mago
##maki
##nags
##pito
##Elekt
##Marsh
##aster
##labia
##niyog
##umupo
lamento
##temang
##Federal
##Joaquin
##respeto
##Nagtapos
##namamanang
##kaliwanagan
##nararamdaman
ope
##Sid
kapwa
##aalin
##palak
##rasyo
##Ifugao
##Spring
##mapagp
##kinapap
##lesbiana
##naglayag
##kontrolado
##manatiling
##etimolohiya
##nanggagaling
hak
oks
##ih
lamo
##Acc
##Ret
##rub
##Baro
##maib
##Islas
##ayang
##offic
aluktot
##Polish
##hadlang
##nagpasyang
38
rana
##381
##Kie
##don
##hit
polit
##Greg
##Igna
##Stan
##kuro
##Grana
##madam
##mahuh
##namin
asahang
##bigkis
##lagpas
##mabait
##Bulkang
##kredong
##panukat
##maghanap
##trutsang
##Josephine
##nililikha
##kasagsagan
##makipagtalik
gip
atal
hile
mano
nago
obya
##epi
aloid
obile
##Napa
sembly
##Creta
##Ashoka
##nauuna
##Arabiko
##Armenian
##Sentrong
##kliyente
##striktong
##kabutihang
##pagreregla
GA
##Clo
gayan
tural
##Cole
##Dist
umbong
##Colon
##Huang
##Nisan
##Tseko
##bitak
##ratio
babatas
##bihasa
##magaan
##pisngi
##babalik
##federal
##naisasa
##sakahan
##websayt
struction
##Konsilyo
##Nakatuon
##basketbol
##Ikinatwiran
##pagbibilang
##nakikilalang
##interpretasyong
kai
ayao
heus
lide
lied
alina
##1905
##Shah
##Toba
##pung
##taks
##Bicol
##ampib
##payat
##Nevada
##aaring
##istilo
##siling
##Greater
##Sumerya
##mangmang
##paggasta
##tumutubo
##Makalipas
##Kretaseyoso
##Oh
##cur
##1902
##Anna
##Febr
##away
##ekse
silyer
##bukol
##fiber
##uutos
##Hispan
##Nagtat
##immuno
##iligtas
##klimang
##million
##pulisya
##rehimen
##Province
##ninunong
##sikologo
##tsokolate
##rebolusyonaryo
29
ango
grim
##Pot
##Girl
##Lith
##Muli
##Nagd
##kara
itungo
##Tulay
##katlo
##mapay
vention
##Aphrod
##hurado
##manalo
##Kapanah
##gumalaw
##Orihinal
##madalang
##paglipad
##ipinatupad
##manlilikha
##pagpapatibay
##pinakabantog
##nagtatangkang
ges
cken
cted
jack
kari
##Kak
##Hili
bayang
##Phoen
##bihag
henesis
orsogon
##Global
##kaluban
##Rehiyong
##makabalik
##masigasig
##Aristoteles
##Kinabukasan
##kinokontrol
##FI
##12.
##boy
udmod
##3000
##Bini
anggam
##Konde
ultanan
##rebelde
##transak
##February
##Sorsogon
##nakalala
##teologong
##magnanakaw
##kinailangan
##nagpapatupad
ER
nio
pet
uos
yop
bean
egno
stal
wano
kalan
torio
##Cele
##Past
##agos
##biya
change
hinyer
##Yoshi
##tangk
##Tanyag
##200,000
##Hungary
##minimum
##Magliano
##paglalabas
##paghahandog
##ekstinksiyon
ugu
akad
rame
ulum
urog
usal
##any
##Bras
##Naba
yaring
##Chile
##Plaza
andante
##Saglit
##square
##tuklas
##Highway
##artipak
##pagkama
##palihim
##sinauna
##Mabuting
##pagpapab
##nababagay
##Australoid
##makikilala
##mandaragat
##kasangkutan
##bulubunduking
##mikroorganismo
zza
##lm
cino
##Abo
##Rosh
alibot
##Bakal
##Final
##pawang
ematikal
insalang
##Strauss
##marupok
##neutral
##pigilan
##puwitan
##siklong
##sukatan
##tatawag
kasunduan
sasalamat
##Hispania
##dingding
##pahinang
##Siddharta
##nakapasok
##pagkaakay
##Azerbaijan
##paglikhang
LA
eau
hea
##DS
achi
agos
fish
ishi
mera
peta
##our
uplay
ladong
##Rajah
##graph
##silin
bawalan
##Matthe
##Nakuha
##pandam
inhawang
##Hiligay
##pagdara
mentasyon
##pagtrato
##talampas
##kalakaran
##kontrolin
##hudikatura
##ikinatwiran
##kronolohiya
##naapektuhan
##departamento
lyn
uce
essi
ilot
##Bun
##Pia
##Yas
##aud
abing
##Main
##puky
##Front
##Irene
##aabot
##promin
##theory
ekturang
##science
##Christmas
##kababayan
##pinaikling
##Matematikal
##imprastraktura
kom
##Kr
##WH
ores
##800
##Unti
awahan
##Alice
##kanay
##Heswita
##hominin
##lohikal
##radikal
##Terminal
##kumpleto
##misteryo
##nakasaad
##pandayuhan
##pagkakaunawa
##panandaliang
##paninindigan
##Australopithe
gia
onno
##Der
##Tah
##Yom
alist
emang
gutan
hiyan
idang
##1200
##Bohem
##Maari
##derib
##Office
##kasuan
##tumuring
##Cambridge
##isinasaad
##terapiyang
##nakabaluktot
##tagapagtanggol
LE
vad
zen
ahak
awas
disk
ells
hara
##Dek
##Epi
##ton
lukan
##Brah
##onsa
sinaya
utuman
##Earth
##Force
##Women
##gumag
##nakuk
##royal
bayaran
paganap
##Golden
##Silang
##distrib
##lagusan
##lumapag
##nominal
##talunin
##Pamantayang
kok
##IP
##Vul
##ast
##gym
ambal
##Good
ension
##Mendo
##Shira
##world
##Miller
##Minsan
##degree
##pagpip
##siksik
##average
##drogang
##esperma
##Katedral
##istasyon
##paglalaan
##pagsasayaw
##pagkakalantad
##kapakinabangan
##nakikipagtalik
map
mic
##fi
inth
nost
##125
##Dao
##suw
bilin
##Guam
##desi
##melo
inamika
kakaiba
##nabago
##bigyang
##nagtamo
##Mongoloid
##espirituwal
##elektrisidad
##ipinapalagay
##elektromagnet
##Kinabibilangan
pho
##FA
##ke
oming
sihan
urama
##Burg
##Uruk
##Mayor
##Nicom
##Sinai
##altar
##Lating
##contin
##kainan
##ordeng
riksiyon
##bipolar
##halimaw
##kamukha
##panunaw
##katedral
##kapuluang
##Hiligaynon
##matuklasan
##pagkakaayos
RI
tib
wey
urop
##Sci
##Swe
##Wit
lohim
##Blue
##Lama
##Vent
##frac
##kubo
##tril
alapit
omenon
siklab
##Cross
##Hemis
##Marya
##Bagkus
##Dinala
##dulong
##kakampi
##nasyona
##district
##makapang
##identidad
##isinasalin
##panandalian
##nagkakaisang
##pagtatangkang
rta
uls
##94
okla
sado
thag
##kob
kreto
##kale
##reto
##Kanya
##aalay
##nakaba
arungang
##Turkmen
##direkta
##pabahay
##rebelyon
##arkitekto
##pangsayaw
##Pentateuch
##napagmasdan
##inirerekomenda
ants
icip
lana
ules
##val
##1924
##Pagb
##arth
##hila
##subs
sanang
##Inang
ikanong
##Osmena
##Turing
##Virgin
##pluido
##tayong
##Basilan
##Matthew
##depensa
##pagtuon
anghalian
##inakdaan
##istilong
##tumutuon
##Panlulumo
##kanayunan
##katapangan
##pangngalan
##paglalathala
##pakikitungong
##paninigarilyo
gos
arto
gion
maan
onic
unot
icide
##Shen
##been
##gram
##nagi
adalaw
silang
##Nabuo
reasyon
##Dalawa
##Pataka
##Silver
##mataba
##photon
##Prinsip
##Sinikap
##hawakan
##iniinom
##pattern
##humiling
##itaguyod
##naghanap
##sanaysay
isyolohiya
##paghalili
##pinakamab
##propesyon
##kaunlarang
##pinakasikat
##antropolohiyang
##CA
ikip
##Lep
##1903
##Ciro
##Hugh
##dung
##ipat
##nego
##simb
halang
##1986.
##Aires
##homin
##pinah
##Buenos
##Gumawa
##League
##Planck
##kawani
##lampas
iselular
##Lithuan
##langgam
##lumakad
##wasakin
##pagpapar
##Binanggit
##direksyon
##naririnig
##Biyetnames
##nagtrabaho
##sinimulang
too
eeee
yeong
##gast
inatay
##1898.
##1997.
##2014.
##Ahmad
##Herak
##Odise
ondohan
##Montem
##Monter
##Parang
##midyum
##Ehrmann
##agarang
##bandila
##isports
##teorema
##winasak
##nabigong
##nagmamay
##panunumpa
banghelista
##paglulunsad
##panggulugod
36
ders
riac
##Daw
##Eup
##pos
##vie
aning
guhit
##bida
##elep
alayan
arapat
cholar
##Bosco
##Lunes
##dibuho
##England
##sikmura
##Pandacan
##batayang
##bayaning
##panggawa
##panghala
##delegasyon
##pangangati
##magkakasama
##sinasadyang
ekw
##tf
atom
site
##net
##Year
##amin
atangi
egorya
stival
##Archa
##artil
edisina
##ayusin
##humina
##naabot
peksiyon
atagumpay
##Basilica
##Campania
##biblikal
##manunula
##palamuti
##Rodriguez
##kapisanan
##paggagamot
##pinanatili
unk
Orba
ahing
lasco
taran
##1859
iyento
uwersa
##Unyon
##ballet
##mapaka
pangalan
##baitang
##pamasko
##bulating
##nagsasalo
##nadagdagan
##pahayagang
##radyasyong
##ipinaliwanag
##nagpapatunay
lace
rest
##porn
mittee
##ngiti
##their
##bawasan
##independ
##pukyutan
##eleksiyon
##gampaning
##hinahanap
##nagsusuot
##nasugatan
##topolohiya
##republikang
iny
lake
##Esc
##bec
##rat
unior
##bond
##sate
##turo
abagal
inista
##hilig
##kilog
##pitak
##tipon
##Kasing
##aayuno
##tangkay
##tsismis
##hustisya
##magnetic
##sinagoga
##magsilbing
##mananalita
##mapayapang
##nagpakasal
##nalalamang
##patalastas
##Ortodoksiya
##monarkiyang
##pagdadalaga
##nakatutulong
##pakikisalamuha
empo
essa
ilep
imen
##Joe
##Rol
##Tos
agtas
eriya
liang
##Oman
##arte
##1995.
##gutom
##mamum
disipli
##Artiko
##tingga
##Alkalde
##Pangang
##pagsuko
##panayam
okanoniko
##Festival
##Maximili
##mapayapa
##paghawak
##tatanggap
##Ipinahayag
kontinenteng
##Kristyanismo
##iminungkahing
##Hu
##kh
hout
##Gav
##Hag
##Bian
##sign
sahang
##Alfred
##Street
##obligasyon
##pangnegosyo
##denominasyong
pok
Kasa
ayom
oble
rion
rium
##Edu
##Seb
##oso
##Saga
##Zheng
##katip
##sikos
##telek
isanang
##inaaka
##naghuh
##nalili
##karayom
##henitalya
##nakikinig
##Olimpikong
##kagustuhang
##pagbabaybay
##pagkapanalo
mn
bie
##Cu
ilis
jani
##Haw
##PNR
##exc
##fam
ungot
antang
##Grena
##grado
olohikal
##Harvard
##Itinayo
##Maagang
##Satanas
##humarap
##Apokripa
##kwantika
##utilidad
##Habsburgo
##eukaryote
##maipakita
##migrasyon
##pahiwatig
##salamangk
##kabilangan
##pamumunong
##samakatuwid
77
##ja
rami
rigo
##Eur
##Mid
##cle
##fil
##key
hente
istry
##alas
##anit
##coun
##Serra
##Trent
##block
##dilim
##ungguw
##Isinasa
##Maurice
##Panlabas
##ganiyang
##malalapit
##mathemati
##negosyong
##magpatuloy
##makalumang
##sirkulasyon
##labintatlong
omeno
##elek
##Lucia
##kalap
##kasali
##sosyal
##bagamat
##general
##iniibig
##Shanghai
##kaalyado
##nakaayos
##panggatong
##manipestasyon
##Zh
colo
hera
##act
ratic
ulung
##gran
##moth
##page
##Heart
utungan
##Korona
##Michel
##baling
##Westmin
##binuwag
##selular
##Bulgaria
##Internas
##Dinastiya
##Nicomedia
##astronomo
##pagpapatayo
ken
apor
wari
##1,3
##Ker
alino
##cond
##ikon
##kler
##pagn
utismo
##Strep
##adapt
##civil
##gonad
amerika
yarihan
##inusig
##lehisl
##pamana
pelikula
##culture
##daanang
##nakasak
##paghipo
yunaryong
##nakatali
##pigurang
##Kristyano
##character
##kolonyang
##Westminster
##primitibong
##pagtangkilik
##pagkakapantay
big
mei
cket
tomy
very
##pud
##upo
##fire
##prof
lubong
##Major
##kulog
##supre
likasan
##Casale
##Siberia
##Sirmium
##bubuyog
mamamayan
##pagsuway
##retorika
##numerikal
##resistansiya
##Nagsasariling
onna
utya
uyos
##Nil
##Ple
##ino
ament
optal
##Aran
##Epis
##Jama
##kaib
##pros
##they
##Pinam
##Salam
##selyo
ospital
##Region
##pamalo
##tarang
##Augusto
##Program
##Suprema
##Tandang
##matupad
##panlasa
##simulan
atistical
##templong
##ikawalong
##tumutugma
##Kasultanan
##Kapulungang
##natuklasang
##pinakasalan
##simbolikong
46
OS
arn
ukom
##350
##Zen
##bra
chiat
larin
lipol
##1880
##Cord
gawian
myento
##Ahura
##Malus
##facto
bidahan
##Limang
##Nikola
##Bacchae
##Iglesya
##Malayang
##magbalik
##pambatang
##pagpaslang
##kumpetisyon
##kongregasyon
##respektibong
chia
dino
hani
lvan
ulsi
##cho
,000.
##alka
##Aklan
##hemis
##treng
##Pinuno
umpungan
##awtonom
##harapin
##nangako
##napakat
anatiling
##kamangmangan
ror
urse
##Cep
##Rum
pinal
xygen
##Puso
##bent
##pare
gaster
ration
##Mazda
##Press
##kakap
##pagda
##salot
##Dharma
##Grande
##paroko
##supply
##umibig
##Nilarawan
##kagutuman
##mensaheng
wt
buh
##SH
endo
ikap
inum
rolo
##Kok
##Lay
##cla
atiin
ilyar
itaas
##Show
##tiya
ubilin
##sahig
gsahang
##Athena
##Ortigas
##gagawing
##sukdulan
##Theravada
##seksiyong
##sinasamba
##tumututol
##destinasyon
buk
rag
rah
chem
hart
##Eba
ronic
##1901
##sona
##taun
##unip
vatory
##Macau
##Synod
##basal
amahagi
hylaxis
##epilep
##nagbib
##naipag
umpsiyon
##Mahistr
##kamelyo
##lumikas
##natakot
##mamalyang
##masiglang
##Nagkakaisa
##paglalakad
##resistensiya
##ipinagpatuloy
##pagdedentista
iyat
udis
ulos
ennes
lisado
##1946.
##1991.
##Caval
##Panay
##gliko
##katha
##tigil
##would
##Master
##Produc
##murang
##pusong
##Romulus
##kognitibo
##permanente
##magkasintahan
ampo
isin
##bom
##gre
wersa
##1923
##Sede
##Sund
##name
ilugan
ulante
##katat
##naila
##pakay
##uulat
##barang
##maihah
##glukosa
##pinatut
ebolusyon
##Barbaros
##ipatupad
##kalakihan
##nagdagdag
##papalapit
##Ginintuang
##alalahanin
##dinagdagan
##masaganang
##Nomenclature
##pinakabagong
ison
sido
##1892
##libu
##Giorg
##bingi
##napip
##studio
##aspekto
##paterno
##Tiberius
##Vladimir
##buwanang
##gayunman
##terorismo
##pagtatanim
##Helenistiko
##kayumangging
91
FA
pey
espe
oral
##380
##Bav
##Dol
galaw
##1869
##Cabr
##Inan
##Nara
##Reli
##self
atigas
eeling
ulador
##Ester
##Jorge
##aayos
##estab
##palay
depende
ersisyo
grapiya
##Andrew
##Cooper
##Wilson
##kadena
##kahuli
##pepper
##Teodoro
##hinanap
##istorya
##magdala
##sukatin
##ginagamot
##irigasyon
##diyagnosis
##dumarating
kov
##zo
,200
rier
##Fis
ektor
##1934
##Teng
##dios
##Pista
##model
##nahuh
##prima
##water
##pastor
##katihan
##lingkod
##malutas
##pananda
##kagawian
##pagsunog
##satelayt
##isinasama
##kagalakan
##pinatalsik
##publikasyon
##pinangasiwaan
lib
##eg
alal
bita
chen
pton
unos
##0.5
##Euc
##rib
ilyong
##Copen
omodelo
##angkak
##ihayag
##Giorgio
##Jacques
##pautang
##sumakay
##umuukol
##unawain
##migrante
##Aphrodite
##inaalagaan
##kasiglahan
##membranong
##nagkakaisa
##plataporma
##Nilalarawan
gium
moto
sile
##Dim
##Eat
##bet
##grad
alayas
alunya
ulisan
##Radyo
##lebad
##sanay
##state
ingning
##Walter
##January
##Pagpapa
##imbakan
##Momozono
##kalayuan
##karampat
##nilagyan
##Tinutukoy
##panghalip
##Department
##Kapistahan
##kalikasang
##kampanyang
##pagsambang
##Pransiskano
kapangyarihang
jec
nie
##nu
ogle
sari
##25.
##aaga
opobia
##aanak
##hinog
stadyum
##Pierre
##Valtel
diskubre
##kambing
##minorya
##taniman
##Copenhag
##Nagbuhat
##pagpapak
##palikpik
##Tagapagpaganap
##pinagsasaluhang
##Miz
##dos
##lab
arias
usion
##Wika
akbong
##1975.
##Asamb
##Basin
##saang
ilbihan
reserba
uramachi
##Galileo
##Tagapam
##pangpak
##patente
##Castilla
##Murakami
##Salambao
##Nabanggit
##Zoroaster
##lumalawak
##napanatili
##panliligaw
##Sakuramachi
##pagpapalaya
##Kabaligtaran
##74
ards
ayog
elan
elom
lini
uber
uses
##164
##Eks
##Old
##mol
##mum
##Ting
lungan
nathan
sylvan
##Pagsa
##imbis
##henera
##kaanib
##nagpah
##magasing
##panimula
##nakilahok
##Santiagong
##gumaganang
##nilalamang
##pagkatakot
##speciation
##tumitingin
##dimensiyonal
##pangmedisina
gon
Code
anus
zone
##Kud
##McC
abayo
##Bohr
##liga
##Makab
##kataka
##lambak
##dugtong
##maiinit
##pagtama
##Movement
##balarila
##dinamika
##kabayong
##Bisantino
##Peninsula
##Gregoriano
##kapisanang
##Observatory
##imposibleng
##nasisiyahan
##pagbabakuna
ized
##leg
hekto
hobia
##Inil
##buko
##siga
length
##Hiros
##Opera
##Sanjo
##eklip
##nagre
##sabaw
##tinan
##Iskari
##kidlat
##sumanib
##nakapirm
##polusyon
##tekstuwal
##Organisasyon
abi
ads
##99
enga
##Jew
##Taj
##epo
rosis
usisa
##alum
##aris
##doma
irvana
##1998.
##alpha
##earth
lahatan
sasanhi
##Copern
##eksena
##palang
##Permian
##Ventura
##bakuran
##kuwitis
##teologo
nutrisyon
##Robinson
##kulungan
##makaraan
##panlunas
##Shirakawa
##etnisidad
##makinarya
##matutukoy
##sinusunod
##Binibigyang
##iginagalang
##kahalagahang
##KB
baga
##ale
holas
##1871
##1911
##vent
##Dream
##Irani
##basta
##Flight
##kuneho
##pampak
##sangha
##Sumatra
##kampeon
##homopobia
##inplasyon
##Himagsikan
##mayayamang
##aalinlangan
##nagtatanghal
##pagpapahirap
##Pangkaraniwan
##tagapamagitan
idi
##ww
cing
halo
roph
##www
ensus
kalma
##nota
##April
##Epiko
##buuin
##shell
##ponema
##provin
##taluka
##BioCode
##Knowles
##Troyano
hihiwatig
##Jonathan
##Nicholas
##makakain
##movement
##siruhiya
##natatawag
##manunugtog
##pagdarasal
##komputasyon
##administrasyong
Mga
epin
tors
##Ekw
##Edda
##Inoc
##Jung
biyahe
##Capiz
##Fidel
##Juana
##tfrac
##Google
##Mister
##kinita
##puntod
##Mundong
##likhain
##Kasulatan
##lathalain
##magaspang
##kaguluhang
##wavelength
##palatuntunan
##pampanguluhan
##pangmatematika
ESCO
gwan
illi
##sod
leton
##mura
atasan
##Kabis
##Kamay
##Texas
##there
##Louisi
##Minore
##binyag
##gising
##nakaga
##series
##Bacolod
##Rodrigo
##mailala
##mantika
##seremon
klamasyon
urgatoryo
##bacteria
##indbidwal
##nawawalan
##pagsasara
##malalayang
##tunggalian
##komplikasyon
NF
ted
ayak
tona
##152
endum
rodka
walan
##moda
uhanan
##Etiop
##Queen
ianismo
##Greece
##Lacson
##Sahara
##demand
##palaka
##sarado
##binuhay
##kargang
##kopyang
##naglagay
##tropical
##Hemispero
##kilogramo
##Inglaterra
##nagbabawas
##nucleotide
##Kapanahunan
##pangkalawakan
##Qi
side
##lus
ubkob
##kusa
ingale
ogenes
##Ayala
##Compo
##Gusto
##tulog
##Pulong
##Kapatid
##Malacan
##makinig
##Balagtas
##diktador
##mangilan
##nasundan
##pantawag
##belosidad
##masusukat
##pambungad
##trabahong
##Mahistrado
##Nightingale
cade
orax
##Cra
##fol
##tok
alani
ganan
##Finn
##Lind
##Mira
##pans
ampira
##Macab
##baliw
##bugso
##sobre
andaang
espeare
##Vicente
##account
##nahulog
##aksiyong
##bisperas
##tagahanga
##Shakespeare
##heograpikal
pal
cuit
elya
stin
##Ren
##Rud
##sci
aypay
herah
ikaan
rhini
##serb
sikang
##Barce
##Mikha
##extin
pinsala
rotekta
##common
##kalala
##matuto
##oxygen
##pagkok
panganak
##dominyo
##hydrogen
##luklukan
##pasimula
##singular
##Committee
##Nagaganap
##nakasaksi
##kasaganaan
##kinalaunan
##domestikadong
##pagtatagumpay
##pagdadalangtao
mel
##rh
bwat
egur
irin
##Dog
##run
kalip
##1921
##Pesa
##chan
eksyon
siglio
##1993.
##Saser
##sound
otikong
##Suzaku
##kapana
##tensor
hirapang
##hinarap
##Cavaller
##kabuoang
##mapabuti
##inihahain
##Indonesian
##koordinato
##magagawang
##pagbibinata
##pagpapanumbalik
hae
pis
atum
hili
##Rat
##1931
##Play
awalan
##chart
##Kamaka
##UNESCO
istahang
vigliano
##alagang
##matindi
##nabihag
##pormang
##strando
##Columbus
##malungkot
##mambabatas
##natatanggap
##pagpapangalan
aven
##151
##Cig
##Def
bisyo
hilig
lomeo
##Chic
##Prio
##Wolf
##kuto
mbagan
ugasan
##Higas
##Stura
##bulak
##makas
##Monggo
##Oblast
##isalin
##pusang
##yungib
##Bergamo
##luntian
##abnormal
##lisensiya
##nagkasala
##Apostoliko
##pagpipigil
##binansagang
##kosmolohiya
##nagtangkang
##pampaaralan
jah
##83
eron
hall
kara
lema
##Leh
ipula
yahan
##Pook
##apdo
##home
##igos
ekismo
##Dilaw
##Kapit
##asong
##dibor
##gener
##makam
##space
##Bhutan
##Ichijo
##adhika
##etikal
##sinadya
##Malacanang
##Nederlands
##paglalaban
##pangangaso
##neanderthal
##nagpapalagay
##maimpluwensiya
ymoy
akang
hotep
stema
uppak
##Ceva
##Sanf
##XXII
##port
mumula
##Camel
##bloke
##minor
##plato
##Bryant
##Ciglie
##Josias
##Lequio
##Uzzone
##akawnt
##bahala
##Antique
##Frabosa
pekturang
##inatasan
##nukleyus
##taglagas
##kabuluhan
##kasabayan
##Savigliano
##napabilang
##Monasterolo
##nakatatanda
##persepsiyon
##Metropolitan
##Napapaligiran
eme
rena
rish
vier
##Geh
##Rio
mbahan
hatulan
paganda
silyong
##Syriac
##Torino
##diyeta
##mapagm
##perang
##puntir
##sesyon
disyonal
##Asherah
##Pateros
##pagbaha
##baryabol
##binagong
##palayain
##diyosesis
##makabayan
##pumapabor
##Wiktionary
##heometriyang
##nasasakupang
WC
bs
sca
##72
cale
usia
##1.6
##ASE
##Sei
##Ven
##aar
aking
##Roas
##kant
##kuri
balang
hinuha
illera
mariva
##Egypt
##Games
##hinat
##lipat
habilit
##Athana
##kaswal
##pampat
##Saluzzo
##Simbolo
##Tinella
##channel
##elepante
##pinagtut
stadistika
##Barcelona
##Sommariva
##isinusuot
##kabayanan
##natutunan
##Samaritano
##Mesopotamya
##transisyonal
##parlamentaryo
etsu
lada
upes
vans
##PRC
chond
##Ding
##apog
icipal
##awtor
##panay
inyagan
##mapili
oralidad
##Kabihas
##digital
##iibigan
##kinopya
##latitud
##nilusob
##Nagiging
##kongreso
##kahihiyan
##Pananalapi
##estratehiya
tio
andy
ught
vate
##Bla
##que
ianus
orpor
##Eden
##mino
##than
##usok
##ASEAN
##Pagla
##Panta
##Petro
##Quint
##board
##hukay
##kulti
##Niella
##Rights
##ideyal
##kariton
##pagbibi
##Florence
##kapareho
##ipagpatuloy
##maginhawang
cin
eki
atap
ayaw
rama
tios
##Dap
##Arta
##Dion
##Tran
##Gawad
##Laura
basyong
enidang
ination
##Martini
##pangkom
##Benedict
##kalupaan
##liwayway
##makontrol
##monumento
##kwantikong
##naniwalang
##Ebanghelista
##kontradiksiyon
vu
hua
imi
vod
##71
hood
##181
##Hak
##Sip
##Xin
##lul
utubo
##Ibin
##NAIA
##Tour
oridad
##Chief
##Indep
##bakol
##inamp
##regla
##tuluy
##Nanalo
##Pythag
##gymnos
##papang
##aristok
##Siriliko
##alinmang
##Kazakhstan
##nagmamasid
##purgatoryo
##Dalubhasaang
##kumplikadong
##nagmungkahing
##nagsasalaysay
##naghahanapbuhay
yap
##Ai
ngit
urno
##STI
##Kenn
##prep
##Corne
##hosto
ripisyo
##Carmen
##Meccan
##nagdur
##musikal
##bumabang
##delusyon
##huwarang
##paglakad
##pinalaya
##Paliparan
##eskwelang
##munisipyo
##Dominikano
##Revolution
##inihahanda
##Kapampangan
##Nagsimulang
##nakakahawang
day
ery
ryp
##92
asta
hest
uhog
wich
##110
bayin
##Fire
##Nino
##gold
##Carib
##Labin
##Namum
##Zhong
##sipon
atagang
##Champi
##poster
##Maximus
##sumubok
##tansong
##magsulat
##salawika
##mabibigat
##photograp
##metapisika
##grabitasyon
##pagliligtas
##68
stand
##Romb
##leap
umbaba
##kolum
##Andhra
##Howard
##Kababa
##kalkulo
##nakabit
##norepin
##paglayo
##pangdam
bacterium
##Williams
##bantayog
##pagtungo
##paksiyon
##naglimbag
##integrasyon
##pagkakaloob
##pamantasang
##pinapakahulugan
sex
ugi
##Io
##Kad
##Zac
kules
skrip
uturo
##Norm
##Ursa
atawan
lokyal
##being
##fetus
##kapam
##buwaya
##milong
##panghe
bilanggo
isismong
okonekta
##Bernabe
##Marahil
##saradong
##kapatiran
##Ekumenikal
##nagkrusada
##Pangasiwaan
##magkaibigan
##Mitolohiyang
##Prepekturang
DI
gak
osor
ubli
##duw
kaido
obser
sider
##1907
##Dire
##Rose
##Sili
##bolt
##rele
abalik
##Laoag
##puman
##trigo
##Malaya
##deboto
##History
##Malimit
##klinika
##tandang
##Filipina
##likurang
##organiko
##pagdalaw
##patnubay
##Cleopatra
##kasabihan
##pulitikal
##Compostela
##ginintuang
##salamangkero
CC
EN
atha
isil
##Fil
ahiya
asyal
##1913
##Fund
##Sana
##tree
uponan
##embri
tanghal
tebrado
##Iliada
##pseudo
##Bahrain
##Cabrini
##Chicago
##Ignacio
##Visayas
##dalawin
lingkuran
##Mandarin
##Budistang
##Filipinas
##nagpatibay
##panlungsod
##magkatumbas
##pinatunayan
eni
ydi
##DV
##ii
caya
gnan
##eff
##gar
cript
yanan
##1908
##Face
##scan
hartha
walian
##Liham
##diyab
##fever
##obhek
##pinta
##Sicily
##hilera
##napapa
##niyebe
##padron
##patutot
##Columbia
##Nagtatag
##Naririto
##namamana
##delusyong
##kaantasan
##kalibugan
##Siddhartha
##nagpaunlad
##teritoryal
##sumasagisag
ski
ider
ilas
##Tic
iking
ikota
##Morm
##trig
bihang
usulat
##blood
##kaina
##kirot
##Reizei
##maalis
##napang
##tangke
##pabilog
##Computer
##Pandagat
##edisyong
##hukumang
##naipapasa
##nakalagak
##pagpapali
##tagiliran
##Pilosopiya
##nakararaan
##organikong
##Paleolitiko
##impanteriya
##instruksiyon
##interdisipli
py
het
##cm
uwit
wili
##26.
##Paz
##sea
batay
giate
##1925
##konp
ilding
kiusap
libing
osente
##Abdul
##Mende
##Perez
##house
##wasto
##Bulaga
##Hubble
##Mababa
##naglul
##Cassano
##alimang
##dominan
##obhekto
##pagbati
##Nagagamit
##hinawakan
##Television
##mananatili
##nagkakamit
##konstanteng
##manlalarong
##prehistorya
dys
##ju
bath
simo
tica
##pib
##tot
dismo
##Abba
##Hans
##Sino
iwalaang
##Islamic
##Ospital
##Vizcaya
##malapad
##princip
##Assembly
##Politika
##masining
##nakasuot
##Pinakamah
##mapigilan
##materyang
##nasasakop
##Manchester
##Pennsylvan
##hinahawakan
##nakadepende
##tagapagdala
##pagkahumaling
##pampananalapi
PD
of
rar
yod
yus
##fl
cell
##Pig
##Zhi
##flo
##gat
##Cons
##Prim
##Shur
##uret
anyaya
awaran
##Jiang
##Moham
##Monta
##Yozei
##batis
##manan
##nagug
##badyet
##makala
##sirkun
##Special
##humanap
##inisyal
##paghula
##pistang
##Nagsisilbi
##pagpapalaganap
RA
SP
asig
bust
##Cup
##Maj
dilim
eglio
lovak
mbala
nakaw
umann
##Pene
##sind
##Cairo
##binay
##halal
##tropa
##espada
##ninais
##kalabang
##pagguhit
##pangwika
##pakikiisa
##unibersal
##Liberation
##paghihintay
##pananalangin
##arkitekturang
##natutunghayan
zh
see
##Ow
amon
riga
wahan
##Chap
##naim
##paun
##pran
ksiyon
strado
##encom
##hanja
##kuwer
##track
##Langit
##kapaki
##Filipos
##Panloob
##bampira
##nagdaan
##tagapak
##Bukidnon
##katabing
##pagawaan
##Inocencio
##Kamaynila
##pagtataas
##gymnosperm
32
##JR
uwad
##202
##Hat
##beT
##1897
##Fore
##Guar
##Haba
##Viet
##conf
##star
alikan
itngit
ralisa
##Andal
##Borgo
##Nacio
##beter
##broad
##class
##kusto
##simet
##Ginang
##Kalang
##Normal
##rabino
##tsansa
##control
pastangan
##hinulaan
##pagtitip
##naglalayon
##napakaliit
##Ipinakilala
##alternatibo
##espesyalidad
roc
down
##Das
##Hop
##Inf
##Mul
##Ved
##dor
ekong
kular
##Ford
##Lito
##ihah
umikap
##Samoa
##bokab
##malag
##sumal
##Maging
##aktibi
##ipinam
##laruang
##tadyang
##Pambatas
##Louisiana
##masiyahan
##kasiyahang
##nagtatalik
##panghukuman
##Pinangalanan
##malnutrisyon
oo
##Oc
##PD
daos
mina
raos
rush
##End
##NBA
##Tir
##Midd
##subt
##unan
ratiko
##Julio
##diksi
##ginug
siyerto
##Umalis
##ekilib
##grasya
##inaalis
##umaawit
##Nagbigay
##eksoptal
##pantukoy
##salaming
##Shuruppak
##pagdududa
##paksiyong
##Panitikang
##nakalimbag
##pertilidad
##kapansanang
##ipinapahayag
##prehistoriko
mac
##Geo
##Our
cillo
hagis
##1500
##Colo
##Levi
akarta
timate
##Minos
##boson
##huwad
tisismo
##Social
##pinuri
alistang
untuning
##Etrusko
##milyang
##simulain
##Pinalitan
##lehitimong
##motibasyon
##kapistahang
##kolonisasyon
##independiyente
ilak
usad
##Gem
##Mol
ahant
lasma
##1860
##Prog
entius
##aring
##ituro
orasyon
##Korean
##kuweba
arambong
##Batanes
##lubusan
##mithiin
entaryong
##pagtakas
##Iskariote
##pinalabas
##Barbarossa
##homoousios
##inakusahan
##Republikano
##katanungang
##pinanghahawakan
bent
##Kub
ranch
##1906
##Apoc
##bing
##gaso
##antig
##depre
##yumao
mentaryo
##Ginoong
##krusada
##apektado
##pagpanaw
##pamilyar
##namamayan
##pakinggan
##Copenhagen
##napakataas
##pamamahayag
glo
inc
##Uz
aril
blem
mber
saur
tipo
##0.0
##104
##Squ
##Won
kakat
##Clin
##Down
##Hein
##tour
egrino
ordero
ugatog
##Briga
##Maori
##years
isisyon
verside
##Cathar
##dadaan
##iwanan
##Napoles
##integer
##napapat
##sirkito
##talukap
##Simulang
##ipahayag
##maybahay
##narating
##siruhano
##tambalan
##ipakilala
##kalakasan
##henetikang
##pagdirikit
##dimensiyong
Cl
uj
agin
hard
lolo
sero
arius
##ensi
##lund
##tuwa
##Krish
##imbak
##pagya
##piano
##sampu
##solid
##Marduk
##Naghah
##Salome
##Wences
##county
##Atienza
##Macabeo
##masakop
##sakaling
##nagpapasa
##babasahing
##matagalang
##resolusyon
##dalubhasaan
##astronomikal
##kontinenteng
hir
##Hig
##Rit
berry
active
rasyang
##Mormon
##lumiit
##Aklatan
##Jakarta
##mawalan
##Akkadian
##Camellia
##itinapon
##kaigihan
##malalaki
##paghalik
##Riverside
##kalimitan
##sapilitan
##Kamakailan
##kinatawang
##magkasundo
##nagkokodigo
##tagapakinig
##nagsisimulang
mm
[?]
##NH
##ec
bour
##aak
##awa
babae
##dial
gastos
##Chand
##katad
ristang
ugalian
untirya
##Advent
##Guadal
##ganang
##intsik
##nanghi
##sopwer
tococcus
##tumawid
##Penelope
##panulaan
##sumaklaw
##tagapayo
##Kautusang
##Keynesian
##Neolitiko
##misyonero
##makatwiran
##paghiwalay
##Kasalukuyan
##deklarasyon
##nasasangkot
##pagmamahalan
##77
hane
iseo
torm
urin
##ney
##pra
kulum
##Arca
##Cron
##Euka
##Mall
##Pari
##Umar
##hekt
##Anglo
##Kanon
##Nakap
##Sakit
##Sirac
##Tumat
##kredo
##lipad
##paang
##parap
andahan
masdang
nostiko
##Masasa
##ayunan
##dahang
##ilustr
##Kantidad
##Valencia
##gasolina
##pampolit
rotektahan
##Caribbean
##Teoriyang
##nobelista
##paghahalo
##solusyong
##kaugnayang
##namumunong
##pamangking
wl
eck
kid
mol
##1.0
##Bug
kaiba
osent
##Soul
##Zeno
##made
##Hades
##Naples
##Nasasa
##Porphy
##person
##rutang
##Frances
##Umiiral
##palakas
##pampasa
##pangsin
##suweldo
##tugatog
##konsumer
##pagtugtog
##phenotype
##sumusubok
##deribatibo
##Austronesyo
##norepinephrine
RS
irs
##eeh
bhasa
##1.25
##Tart
##body
##live
dibdib
##5,000
##Enlil
##robot
##Garden
##Italia
##Kudarat
##bombero
##episode
##tumawag
##usaping
##inuugnay
##nakasama
##notasyon
##imposible
##natatakot
##sumuporta
##Nakarating
##natatakpan
##panimulang
##kompuwestong
##pinakabatang
##sirkunstansiya
yut
town
##Kip
##Rub
##gly
##hon
##Rang
##Yuki
##city
##kost
##kwad
##puna
intuan
raltar
ularyo
##diyus
##pugad
##Seleuc
##naakay
##pulbos
##Romblon
##ikasamp
##imperya
##maiging
simiyento
##Licinius
##ensiklop
##ekolohiya
##pumipigil
##Federation
##Karunungan
inungalingan
##nakapagbigay
fu
bek
bir
dle
##va
walo
##1.2
##dil
##1492
##Barna
##Solid
##dalub
##ingay
##karma
##kumok
##porsy
##Rusong
##sumapi
sakarido
##Nakipag
##Oceania
##asetiko
##mangkok
##monarka
##pamaman
##scholar
##paglubog
##Katunayan
##lumalapat
##nakakamit
##nilarawan
##spesipiko
##implikasyon
##lehislatibo
##Turkmenistan
##kahihinatnan
sup
cius
inoo
spas
wift
ytay
##Pep
gabag
roksi
uthor
##NATO
##budhi
##stock
gasyong
##Hippoc
##review
duksiyon
ugtungan
##300,000
##Douglas
##Eurasya
##Madonna
##pinalam
##Tagaytay
##Amerikang
##Kabahayan
##pagbangon
##Democratic
##episodyong
##nakapalibot
##pamalagiang
##pertilisasyon
abaw
resh
usot
##WTO
sehal
uluga
##1565
##Brad
##Vina
##Work
##guer
##your
##Makat
##Under
##ister
##Cortes
##Vargas
disinang
##Katalan
##Cardinal
##Diosdado
##metodong
##monopolyo
##Emperatris
##monoteista
##pambihirang
##nagkakahalaga
##pagpapatalsik
##klasipikasyong
##pinahintulutan
56
ier
##KP
eira
urai
##Alv
##nep
omenk
##1926
##Fiji
##Stam
##sisi
initan
roseso
##1950.
##Genus
##Rocch
##minar
##sabon
bestiga
##dyipni
olatriya
##Kasabay
##Marcelo
##kompreh
##pagtira
##Antilles
##nagpapah
##paliguan
##Quirinius
##resultang
##mungkahing
##paboritong
##pinapansin
##pagpapainam
##mailalarawan
##supernatural
##tagapagmasid
als
buo
did
tsu
##SA
itin
usil
##1879
##Game
##lant
##upon
bility
##Evans
##Lenin
##malam
isadong
ormista
##Nakasa
##Thebes
##Villar
ahimikan
##Maggiore
##ibinatay
##Ipinakita
##Natatangi
##panghukbo
##Karapatang
##makapagdulot
##pampolitikang
43
ize
##Nu
rate
ritt
uble
##rum
##Cook
##Dili
##Gron
##tari
iksing
rosong
##Lokal
##Vigno
##binib
##dinal
##poton
unlaran
yunaryo
##Apayao
##embryo
##pangte
##parali
##susing
##Bavaria
##Neumann
##boksing
##parehas
##Mehikano
##pamimili
##Rocchetta
##dibisyong
##malalamig
##nakatutok
##simboliko
##Monggoloyd
##government
##nagpalitaw
##sakripisyo
##Amerikanang
##nagpaparami
##prediksiyon
##maihahambing
##metropolitan
##napasailalim
##Bulubunduking
OE
cles
lity
##Ext
amoto
intog
uonan
##Cold
##Tila
##link
iniano
lywood
##Dalai
##Fatim
##Kyoto
##Pesah
##batik
##habag
bilinan
##Crimea
##palaso
##Dapitan
##Elektra
##Justice
##Katihan
##Riemann
##isotopo
##mayorya
##Pilipina
##Tinangka
##akademya
##dagliang
##paratang
##sigarilyo
##homophobia
##itinatakda
##katiwalian
##pambabaeng
##pinondohan
##labinlimang
##PilipinasMga
##optimisasyon
##temperaturang
OM
ktan
##105
##iim
isalo
tario
urity
##Ezek
##istr
##palo
ayaang
dalawa
roscop
utasan
vicino
##Franz
##Kings
##magba
##osong
##sapot
##tenga
ataytis
##Radyal
##filter
##kompar
##pakund
##magsisi
##naputol
##pangrep
##romansa
##kuwerdas
##Itinuring
##atmospera
##ipanganak
##mitochond
##sumasamba
##Cordillera
##greenhouse
##prepektura
##Dalubhasaan
##influential
EL
nah
##>.
##OS
ceto
edom
##2.5
##Soc
##TOP
##geo
ustos
##disc
##Pangk
##kamao
##print
##sperm
anthrop
##Pagsus
##gastro
##paniki
##tangka
ungkulin
##makapan
##nilisan
##compound
##kinasasa
##nakataas
##pangtiti
##binatikos
##Anastasius
##Serravalle
##pangilalim
ska
##Ei
amas
huli
ists
sten
##2,1
##low
ignan
##Panl
##pino
##pred
##sulf
##4,000
##Amang
##Calle
##Oscar
##prosa
bustero
##Potter
##adoles
##hijack
##kumpuw
##liriko
##Alfonso
##Bagyong
##Krishna
##Layunin
##Sicilia
##handang
##pumipili
##sinusuri
nostisismo
##nakahimlay
habilitasyon
##sibilisasyong
sep
##76
##DZ
ebec
olfo
rent
rone
##182
##Alp
##Arn
##nut
##Assi
##Form
##logo
##Argos
##Demok
##Frass
##ultra
##urong
ralunga
##Joseon
##hiblang
##maselan
##Leonardo
##language
##pulitika
##tonelada
##Castellar
##atmospero
##kaayusang
##Conference
##Kinikilala
##nagpakitang
##pangkalakal
iyo
##SS
ateh
liya
orno
udra
##Hod
##Kod
##Lut
##vir
hesis
itpit
roppo
sasco
##Alan
##Chem
##Gusa
##Paga
##Thra
##Zula
##bumi
sidera
ushima
##Plant
##resid
uwasyon
##Asiryo
##Athens
##Jersey
##laruan
##nasawi
##Sevilla
##inaband
##tribute
liligalig
##bitamina
##ranggong
##variable
##Lithuania
##Santander
##kagawiang
##pakikinig
##sinubukan
##pinakamagandang
##rekonstruksiyon
diin
leep
rels
rost
##Fuj
likon
##1890
##Must
##Sung
##tape
aresma
iyenda
ratang
##Anime
##Cheng
##Madre
##kaant
##pawis
##ulang
impalad
##balang
##sinang
##lisanin
##machine
##mapapat
##nerbyos
##Diogenes
##Ultimate
##estrogen
##algoritmo
##analitiko
##kundisyon
##makakamit
##phenomena
##pinaglala
##Makabagong
##Roccaforte
##Serralunga
##kinumpirma
##mabababang
##nagtatampok
SD
gae
ader
chev
eser
hiko
kula
lash
ukso
urce
##Pir
##USA
##vol
##....
##Rhod
##laga
##nung
##oral
mpleng
##2015.
##Stone
##bulok
##krema
ambayan
roviral
##Middle
##Sarang
##Secret
##binati
##inawit
##kawang
##limutin
##interest
##lumalago
##midyibal
##pagsupil
##Saserdote
##kanlungan
##sinasadya
##pagpapasuso
##intelektuwal
##pagpoproseso
##pinakamagaling
58
etz
itz
tip
vah
##81
xtus
##def
##iin
walag
##1928
##Itha
##Musa
##Shab
##beta
##ideo
##Beach
##Matat
##Nagla
##Obama
##Swift
##Water
##sarsa
alipsis
ustuhan
##Grammy
##Khazar
##Petron
##Series
##sister
##Babaeng
##Vincent
##extinct
##pagsali
##Imperial
##Bergoglio
##Gibraltar
##Magandang
##pangangam
##radiasyon
##nagsusulat
##pinayagang
##Apocalipsis
##Kasingkahulugan
xes
##Gob
##McK
##Sai
ontra
sista
##Duma
##Gaul
##cant
##pagi
inador
loride
padana
##Ursus
##Waray
##Yamag
##fluid
##iilan
##Battle
##Quebec
##bukana
##encomi
##nomenk
##sirain
analunan
odonosor
##Gratian
##ikalima
##kwartel
##taliwas
alinghaga
##Kabataan
##nagbitiw
##pagtatae
##hinatulan
##pangharap
##samantala
##Konstitusyon
##pagtatakdang
##prominenteng
##magkakasamang
##napapalibutan
ikh
##CM
aliw
uita
vano
##aff
aalam
vices
##Odys
##bise
##yero
imedia
##1999.
##Crist
##Dario
##Husse
##Order
##Sagot
ilasyon
onsulta
##Itinut
##Naruto
##Pinili
##hihigit
##isinisi
##Espadana
##Linnaeus
##Theodora
##dentista
##imperyal
##pahalang
##pamanang
##Komisyong
##Sakramento
##nagbanggit
##kanonisasyon
##maipaliwanag
olp
zes
bera
lung
trav
zzate
##Idin
##Isid
##Pray
##balo
##buod
daanan
igting
##Dabaw
##XXIII
##Gregor
##Reform
##ditong
##panalo
ristiyan
##Colegio
##Tacitus
##Inhinyer
##papalayo
##kasikatan
##mahinahon
##paglagong
##pakikialam
##tinitirhan
##abstraktong
##matematikong
oki
alsa
bido
##Tzu
##fal
##nir
##seo
gulan
ikulo
##Prun
##Saud
asigla
romiso
##Basko
##Magat
##adver
##polim
sanggol
##Griego
##bisiro
##mikrob
##Journal
##bayaran
##kalabaw
##Executive
##isinaling
##primasiya
##anaphylaxis
##nagpapalakas
##kinapapalooban
##pampisyolohiya
##BD
##JT
##Tz
arez
##Ose
landi
upkop
##team
##Mapag
##inber
##spect
alataya
##Jewish
##Schrod
##tetrap
##transi
##Eduardo
##Ezekiel
##Valtrav
##hinimok
##Emirates
##Hokkaido
##Kabanata
##Malakias
##asteroyd
##chairman
##mananahi
##Cristobal
##Heraclius
##TsinaKasa
##baranggay
##Schrodinger
##Romanisasyon
##Valtravaglia
##agrikultural
tec
asim
atlo
fore
olph
##McD
##WHO
##sym
##way
##1700
##Host
##Lord
##amer
gunita
kurang
##Imami
##forgi
##pilot
##pusod
wasayan
##Ithaca
##Kinala
##Renasi
##Varese
##coelom
ularidad
untunang
##Jamaica
##Project
##Business
##susundan
##paggunita
##pantasyang
##salamangka
##kontinental
##tinatalaban
##naaapektuhan
yi
uge
##78
##RA
##ub
,600
aron
luto
tono
utay
##Dub
##Gue
##gir
cuvia
ineto
pasan
terya
##Holy
##cast
##dato
##kare
##mean
##mort
##rati
##1970.
##Edipo
##chief
##pokus
##punla
lingang
##Geneva
##multip
ganistan
panimula
##Bangkok
##eroheno
##Atlantic
##Valcuvia
##kaparian
##Friedrich
##Kababaihan
##nagpakilala
##pagkukwenta
##pangdamdamin
hud
##MI
asus
##DVD
##Igo
lakbo
phone
sikip
##123.
##2019
##rein
##very
ateral
bayaan
utihin
##laway
##minim
##capita
##magturo
##maximum
##therapy
##hayagang
##pantalan
##proteina
##Karagatan
##maiiwasan
##milimetro
##nilalayon
##paggaling
##parusahan
##sumusukat
##tinalakay
##naghahatid
##Maihahambing
##Pennsylvania
##napapabilang
##magkakaibigan
deo
tae
dius
isid
##Isk
##cat
ronym
yebal
##1912
##karbo
##pulot
ethoven
gagamit
##Paraon
##makiba
##narang
##ateista
##inaawit
##sumisip
bibidahan
##Katutubo
##mahahati
##natirang
##Beethoven
ristiyanuhan
##karampatang
##nahihirapan
##panlalawigan
##ipinagpapalagay
ben
huw
araw
bono
eous
kard
onen
##cin
anaog
enyas
sinan
usibo
##Beli
##Morn
##Nilo
##Sout
##gray
##mail
##pust
##Nabuc
##Pelik
##cross
kinitan
##Butuan
##domain
##umiyak
atoryong
ibabawan
##Mahirap
##Patuloy
##Roberto
##Taoismo
##fariseo
##optikal
diyosesis
karnasyon
##Valerius
##paghango
##pangaral
##Pagbagsak
##erohenosa
##kumakalat
##Pilosopong
##tinulungan
##pampelikula
##kritisismong
##pagkakasulat
AT
LI
mbal
##0.3
##beh
isama
##Xiao
isdaan
##Artem
##pwede
##sigla
lovakia
##Aeneas
##Carbon
##Lucban
##Public
uluganan
##etikang
##pagguho
##Maximian
##makabago
##pisikong
##Confucius
##komunismo
##napaunlad
##magkasabay
##meditasyon
##naglarawan
##prokaryote
##Pagpapaunlad
##kreasyonismo
##nagpapakamatay
@'
ege
iza
uai
##ir
adon
apid
dido
itta
lobo
tabi
ugid
##Dai
ataba
##Wawa
##Your
##care
aligid
anggan
masyon
##Istan
##Tanso
##Watch
##prost
konsumo
##Pangga
##pinong
##magsuot
umentaryo
##Eusebius
##Istanbul
##ergaster
##linggong
##nakalikha
##pagsusuka
##paninirahan
atn
##Ry
##ABC
##Laz
##Neb
##Zoo
kamay
lalim
laran
##Acts
##JTWC
##Kura
##Pier
##Scot
##adre
##sqrt
##tort
##wiki
untong
##1922.
##Antig
##Canis
##Kiram
##about
##isasa
##lumba
anghang
entuhan
stikang
##Bituin
##Psycho
##pekeng
alistiko
##Aladdin
##Humingi
##hikayat
##kuponan
##sinanay
perimento
ristiyano
##Emmanuel
##pahilaga
##tiyakang
##katuturan
##pagkagusto
##algoritmong
##nagdiriwang
##alpabetikong
##permentasyon
##Nabucodonosor
##makatotohanan
##mapagkukunang
##representatibo
hw
##Cr
##ol
ikit
ites
uart
##Gad
##ped
aglio
yenan
##Pian
##koop
##nakag
resista
##Nagawa
##Taylor
##merong
##Everest
##Mikhail
##Ontario
##antiret
##longgan
##magsama
##pamumuo
##basehang
##kumilala
##pagdaraos
alingkurang
##magsasanib
##makaligtas
##Gnostisismo
##demokratiko
##98
##MM
##Sk
apul
real
sahe
astia
layan
strom
##Sher
aktibo
tonggo
unyagi
##anest
##benta
##maika
##petro
##point
##semen
##sumab
##ilapat
##submar
##Baltiko
##Guiller
##Isparta
##bituing
##lumaong
##Inilabas
##deposito
##diskreto
##mabangis
##maitatag
##kalutasan
##nagbunsod
##Kamaynilaan
##nagpapadala
##pakikipagkapwa
BN
##Oo
eler
hist
sage
zaki
##Beg
##Gom
##Rac
##Yus
halan
ulbos
usdos
##1546
##1909
##Cont
##Pius
##stro
laping
saurus
##Tarso
##dadal
rotesta
##Lombar
##Romana
##kapuna
##kasamu
##Cebuano
##pinsang
huluganan
##Vatikano
##dopamino
##tinuruan
##hinahalal
##kurikulum
##pumupunta
##alhebraiko
##eroplanong
##inihambing
##kaantigang
##Universidad
##elementaryo
##nagbibigkis
##pagpapatawad
ige
rew
##PK
face
inaw
iski
lemy
mbre
rary
udal
##158
##Leb
##Zap
##hyp
##Chen
##Fred
##Mact
##Magi
##Wind
##drug
##fund
##hier
##just
eralco
kinson
##Labor
##Meiji
arangan
##Doctor
##Merced
resibong
ulturang
##Caucaso
##Higashi
##Meralco
##arahant
##diyaryo
##ikawalo
##lusubin
##nahukay
##sapagka
##Kapitana
##apokripa
##parsiyal
##Klasikong
##dumaranas
##magparami
##panauhing
##indikasyon
##instansiya
##tinuturuan
##Katotohanan
##Mediterranean
##pagkakaibigan
47
267
chy
jun
bari
idal
##Pim
##Sor
##las
hital
##Burn
##beet
##limp
##noma
riyano
usunod
##Wells
##tinik
##treat
##waves
pektibo
##Andeng
##Pamaya
##Rashid
##atleta
##binasa
##bubong
##dragon
##nosyon
##trutsa
##500,000
##Ichadon
##pinakas
##tablang
##Zulaikha
##naiugnay
##neutrons
##tahanang
##hahantong
##malaganap
##komandante
##pinanganak
##proporsyon
##Ipinakiusap
##atraksiyong
##pagnanasang
##pinasimulan
aru
omor
##ATP
##Kol
##Tip
##Zar
angle
porte
##1872
##Este
##Glas
##Sikh
##Whit
##stim
gulong
uwaryo
##Horus
##after
##dumud
inatang
pangkat
##Montes
##Romani
##bumati
##dumayo
##transg
etensiya
##Araneta
##Fukuoka
##Jacinto
##Nahalal
##Ptolema
##binabae
##complex
##pinilit
##Zacarias
##ikinasal
##Kalimitan
##Wikimedia
##inilalaan
##nakabitin
##natutuhan
##sumasagot
##hepataytis
##nagbebenta
##bokabularyo
##ekonomikong
##pinapalitan
##misyonaryong
##respiratoryo
enth
hant
##Fab
##Sad
##tib
aroon
hiram
##1863
##Arko
##lymp
##sequ
oterap
upahan
##1948.
##Direk
##Eugen
##Itong
##Plato
##Ronal
##ribos
intindi
##Ludwig
##natira
##Johnson
##polymer
##ampibyan
##pagmamat
##napilitan
##nitroheno
##paganismo
##transport
##Kinakatawan
##magnetikong
##pagkalalaki
##pinagsasama
##tarangkahan
##Mediterraneo
##Presidential
##imprastruktura
det
fri
##Ny
sign
unok
zole
##Yin
##add
alita
onomy
stino
uanes
umpol
##Kuwa
##good
##love
##Linus
##Marte
##Recon
##color
##globo
##kalit
##oksid
alinong
enteryo
##Catand
##Sexual
##basura
##called
##matamo
##inakala
##magaang
##pagsama
##pinapan
##pumanaw
##December
##genotype
##translit
##higanteng
##maasahang
##nakaangat
##namumuong
##dibersidad
##Catanduanes
##tagapaglingkod
LP
##SU
##ty
erne
lsal
##Cac
##Wol
##Xia
##cav
##son
##Amun
##Euph
##Mara
##Meta
##pipi
##solo
itolyo
lambot
quijor
##Gusta
##panta
##tawad
##uriin
gramang
##Disney
##Fresno
##Junior
##Lalong
##bukang
##pipili
bisyonal
##Belgium
##Bracken
##Diliman
##Francois
##Siquijor
##gamiting
##Hollywood
##Sarangani
##kumatawan
##nalalapit
##Parlamento
##kinikiling
##palimbagan
##politeismo
##pakundangan
##paligsahang
bd
##79
gara
layo
posa
stes
##Edo
benta
jiang
kapan
shire
##Aram
##Chav
##Flam
##conc
##itat
##kawa
ensyal
higpit
monary
##1941.
##ibayo
##plate
##surpa
enderos
##Boston
##Theoph
##Umabot
##motibo
##trauma
rangalan
##kredito
##serbesa
##Brassica
##Madaling
##Nazareno
##Herodotus
##namumukod
##pampahina
##panlangoy
##nagkasundo
##nakatalaga
##binabayaran
##encomenderos
##pagkakakulong
sch
##LA
##lt
##Liu
##Poe
##ass
##pel
##sas
anoon
bihag
##luha
##tech
hattan
##Board
##Trias
##force
##gumug
##iipon
ikistan
laganap
##Guimar
##dambuh
##Indiyan
##kalasag
##mahanap
##papayag
atolohiya
inatorika
##alimango
##nagsanay
##tanungin
##isasagawa
##porsyento
##inihahalal
##magbabalik
##nagpapalit
##Renasimiyento
##diplomatikong
##magkaparehong
liw
##1.4
balot
diano
igkis
iktik
kiman
lador
ubaya
##sili
##spec
##town
##type
asukan
ukiran
##Haway
##Osaka
##burok
##mapak
akikita
##20,000
##Inutos
##mabago
antiyang
##Lipunan
##espinal
likasyong
##Guimaras
##bilugang
##konsilyo
##pressure
##teleskop
##Manhattan
##nagtanghal
##pagkamulat
##pagpapahid
##kreasyonista
vt
eus
okya
##Dig
##Eno
##Way
##Zhu
ulugo
##1884
##Lyon
##Troy
##kili
apulco
awanan
uality
##Aruba
##ekosi
##pigur
##talat
henital
onomous
ubaybay
##Family
##Peroes
##Steven
##balbas
##humula
##piliin
##Natural
##dumalaw
##napapag
##pangkon
##pinagsa
##sinanhi
##Acapulco
##Napansin
##Tumanggi
##humuhula
##iginawad
amerikahan
##liturhiya
##notasyong
##sinabihan
##paglilibing
##pangrehiyon
##Kaamerikahan
##pisyolohikal
##nakikipaglaban
##makapagpaparami
abo
asin
kain
usaw
##Jay
##Pec
##Sug
itico
##Cano
##Enki
##Town
##blue
##gana
##site
##Chiba
##Swiss
##inuri
##kahel
##local
##sapad
##artist
##babang
##orasan
##palagi
##almusal
##bagting
##biologo
##hanging
##kondado
##naitayo
##pangkah
##pangmad
##Aramaiko
##ipagbili
##ipotesis
##diptonggo
##pagkalito
##papalabas
##talakayin
##Panalangin
##Tinuturing
##bumabagsak
##nakakakuha
##humihikayat
##nakapirmeng
##multiselular
##nagpakamatay
##antiretroviral
mid
sai
tera
ugaw
##App
##Kra
##Ost
##uka
hates
umano
yaman
##hist
##open
##ubas
habang
##1984.
##Study
##Uzbek
##pahap
##trade
##Madera
##Sentro
##gagawa
kikitaan
##Hussein
##Redwood
##aberahe
##ginhawa
##kapakip
##krimeng
##kumpisa
##magpasa
alinsabay
##District
##maglagay
##relatibo
##sulating
##mangangaral
##teolohiyang
##interpersonal
ask
cyc
jib
ops
##CG
dlad
ecca
ians
jima
lero
ungs
##178
##Aba
##Uri
andes
apaan
saban
ultur
urias
##Mike
##Wiki
##buum
##este
herine
##aatas
##gumam
##kinom
##seleb
##Bantay
##Queens
##Stuart
##singil
##Sultana
##Tratado
##imaheng
##nanumpa
##studies
##Ugnayang
##ikatawan
##kondensa
##pamumula
##Florencia
##pagkiling
##katahimikan
##imbestigador
##elementaryong
An
tyr
##IA
body
lium
shaw
##Huw
##Slo
##Cand
##Kump
##Volp
##Wall
##Ying
##iyan
##paro
##sira
ugmang
##Carus
##Light
##antim
##lulan
handaan
##Romual
##Shasta
##bakyum
00000000
##Bahamas
##bulebar
##physics
##pilgrim
##process
##without
akabilang
ulukuyang
##lumalang
##reaksyon
##tumingin
##Idinagdag
##komedyante
##nakakaakit
##nakumpleto
##pagkadiyos
##pagluluwas
##politikong
##produksyon
##Estadistika
##asasinasyon
##tagapagbalita
##biseksuwalidad
##pinagsasaluhan
##je
naut
##hub
##kai
isado
##Aviv
##Otto
##Pelo
##otel
alutan
##2002.
##Brook
##Death
##Parac
##Sulay
##index
##namim
##Pantao
##Polong
##higaan
##ipinak
##isipin
##maghah
##planta
##wawasa
##Humigit
##Sebwano
##depinit
##habilis
##lampara
##pagbawi
##pagdiin
uwestiyon
##Assyrian
##inilapat
##kakawate
##kasawian
##Sasakhari
##kasagutan
##pagpansin
##Copernicus
##pinagsanib
##replikasyon
LF
COR
hab
osy
mala
ngaw
##Cec
##Lyn
##Mut
##ker
erous
laang
##Wise
##beha
araang
herong
##acute
##epoch
##kabit
##plebi
##sugal
abagsak
labanan
uwirang
##Bacter
##Centro
##Gallus
##Nangga
##dagang
##gender
##magaga
##survey
##letrang
##lunting
##sagutin
##salawal
##umiinog
##Sardinia
##apatnapu
##lebadura
##pinansin
##naranasan
##Kolehiyong
##hinahangad
##komplikado
##mahistrado
##pinakahuli
##inanyayahan
##pagkakahawig
##paleontolohiya
##gp
##if
aloi
arik
rias
take
ukot
##Hui
##Nur
##Rin
##fit
iphan
ortex
##atle
inator
rikang
##Codex
##Lehis
##Mario
##Three
##Xiang
##kabib
##kagat
##kweba
##Salita
##Sports
##Surian
##inters
##Philipp
##Tayabas
##reklamo
##Sulayman
##dinatnan
##midyebal
##pagputok
##halamanan
##lumalahok
##nananahan
##Athanasius
##Kalangitan
##nagtitinda
##pagsusukat
##kandidatong
##pasasalamat
##eksistensiya
##nakasalubong
##pananghalian
##tagapagbigay
##pagkakabahagi
##pinakamayaman
gyz
bula
##Kyr
##Wen
##ear
ligan
point
##1857
##Bing
##incl
##pedi
##plum
##some
##suka
##Gitna
##Indio
##There
##mamah
##narer
##rayon
iramide
##Balkan
##Igorot
iosperma
yerkules
##Separdi
##naiulat
##nakabub
##nakabuo
##Artikulo
##kamangha
##mauunlad
##paanyaya
##Napilitan
##Pagkakita
##elektriko
##Rebolusyon
##komentaryo
##pampasigla
##trigonomet
##pakahulugang
57
bey
##au
adam
alos
part
roll
uena
##1,1
##40.
##Gul
##Nie
bador
ephal
gasan
hatan
marck
udlot
##BDNF
##Mega
anayam
chelor
kadang
##1960.
##Color
##Manga
##Napat
##Qatar
##Sirya
##Ungga
##sinap
##start
##tatag
antaong
erasyong
##Selanda
##sumabog
##Grondona
##Salitang
##Taglamig
##humirang
##Kalakalan
##sinalakay
##tagapagpa
##Apganistan
##ikasampung
##literatura
##nakagagawa
##Alessandria
##pagkakautang
##Tw
onis
quer
unda
zawa
##Gua
##Guz
##Tud
##sis
dello
ediko
hitud
##Kron
##Nati
##Verg
##flag
##limb
awngaw
itoryo
##Moldo
ulutang
##Karaba
##Ocampo
##esoter
##hiling
##indeks
##kabini
halagang
payapaan
##Cascade
##Liwasan
##Propeta
##binalak
##biyenan
##manggug
##sinulid
##tumbong
astaasang
##Scotland
##kalapati
##kolokyal
##pambahay
##pinalaki
##Hiroshima
##hugpungan
##randomang
##sinilangan
##pagkakaugnay
##Pinakamahusay
##iminumungkahi
##pagpapahalagang
iac
xin
##Kw
pali
saya
ulet
##360
##Log
carbo
##Atom
##June
##Siko
##dign
##most
##turn
##Lakan
##Polit
##dahas
##domin
##milon
ayabong
rodkast
##Diosco
##Legend
stihiyal
##Flajani
##Gehrels
##Masorti
##Mendoza
##Umaabot
##Yanbian
##aliping
##epikong
##paskuwa
##tableta
bintangan
##Ibinigay
##Lumilitaw
##Romualdez
##Tinanggap
##bangungot
##iglesiang
##kalituhan
##kasakiman
##bestihiyal
##nasaksihan
##nilalagyan
##pamamanhid
##kapatawaran
##mananatiling
##probinsiyang
##estadistikang
RO
zoa
##ji
##ox
##vs
atem
poro
##Ann
##Bed
ebate
pesor
titik
##Home
##Kalo
##nama
##shog
##tint
enburg
##Balta
##Chlor
##Marga
##bukal
##abuloy
##beetle
##neokla
##pagala
##testim
##Valenza
##dihital
##hinalal
##bunganga
##kataasan
##magpadala
##naimbento
##pagtataya
##Pamamahala
##kapitbahay
##kompromiso
##nakatayong
##tripulante
##nanungkulan
##morpolohikal
##pagpupunyagi
##pagkakaunawaan
mut
nog
##bs
##sr
##dak
##dei
nakit
##14.5
##Brig
##Hell
##Mono
##nand
##Carth
##Girls
##hinal
##puber
##Bureau
##Kendal
##Marian
##Wonder
##ipinip
##uretra
kanluran
##bombang
##kalakip
##makinis
disiplina
nararapat
##Dumadaan
##kailugan
##magastos
##panganak
##tinakpan
##hilagaang
##Pythagoras
##naghahanda
##akademikong
##pagkukulang
##kinailangang
##nakapailalim
51
pri
,400
akin
esor
itil
madi
utra
veld
##137
##Bek
##beg
##ego
##ens
amaan
##1915
onship
##Akkad
##Barto
##Jason
##Kalap
atorian
langing
##Batman
##Yamato
##iskala
##karang
##nasaan
##pagham
##Ahedres
##Blument
##Epiphan
##Magatas
##bipedal
##circuit
##ngilang
ipikasyon
##Prinsesa
##bersyong
##grooming
##inaalala
##kultibar
##panonood
##Maxentius
##humanidad
##nasangkot
##nilabanan
##kahirapang
##malikhaing
##maninistis
##taksonomiya
##estudyanteng
##Protestantismo
##kontrasepsiyon
VA
arca
chio
lama
rach
##Ent
thman
udios
##Band
##Wars
atupad
orders
##Hotel
##Nevis
##libra
##tipak
eneveld
##gitara
##Abbasid
##katipan
##nakahah
##pagkali
##Carolina
##magbukas
##pahapyaw
##sumiklab
##talahana
##Community
##nahiwalay
##Groeneveld
##Panlipunan
##protektahan
##nangatwirang
##pampalakasan
##kasinungalingan
##pangangatwirang
umn
veo
##MS
##nj
GASA
entz
ipat
isho
itai
kian
ugto
##Aem
##Gly
##amb
##att
##dur
##mul
##orb
##rhe
ugbog
##Odal
##Omer
##konh
##Ernst
##batub
##glute
##matip
##testo
##Circle
##Curone
##PAGASA
ometriya
##Borbera
##Tahanan
##Tortona
##isulong
##nilapat
##pumukaw
##Honorius
##Odalengo
##Princess
##nawalang
##pagdakip
##pampaman
##pinalili
eknolohiya
##Inaasahan
##kapaguran
##nakapokus
##testoster
##nakakaalam
##komunistang
##pagsisiping
##pananagumpay
##interbensiyon
##pagkanararapat
amb
osh
rob
##97
abon
ious
ledo
##Rah
##dud
burgh
emiko
##1889
##Bros
##Nasi
##Octa
##Open
##pagu
##symp
##taya
lation
##Agric
##Maldi
##Nefer
##Seder
##Vasco
##sobra
hapunan
kapatid
kursong
##anakan
##bulong
##kumita
##penins
##Britain
##Nagorno
##Asamblea
##electric
##nagsalin
##pagbuhay
##pinagpap
##Caucasoid
##Kamatayan
##dinamikal
##Tinagurian
##napakalaki
##direksiyong
##kalalabasan
##interkursong
##kolonyalismo
##pangkapayapaan
ive
lee
wsaw
##108
##30.
yanig
##1850
##Rene
##Temp
##Wild
##coup
##kaps
vation
##Esper
##Ponce
##reser
odhisat
resenta
##40,000
##Ipinat
##Kyrgyz
##Uthman
##kaanak
##nanini
##pangmo
##Bumalik
##Maxwell
##balabal
##fitness
##umuulit
##Municipal
##hikayatin
##Kaputungan
##Marcionismo
##Tinatalakay
##hinihikayat
##napagmasdang
##Kataastaasang
AP
dob
##Sm
##gs
bach
crip
sona
umba
##McN
##PBA
##PPP
##Ton
##bac
##quo
##uso
##yog
payak
yales
##1868
##Fuji
##Idol
##Naip
##modi
gulang
mental
##Ating
##colle
##eksam
##Fisher
##Katang
##Manchu
##malabo
##umawit
ationism
##Hupiter
##atomong
##binaril
##orasang
##pagkasa
lohistang
omodasyon
usterismo
##Heracles
##pangulay
##standard
##teorista
##magkasing
##sinusulat
##taumbayan
##magdudulot
##eukaryotiko
##Pinamumunuan
##gantimpalang
##mikroekonomika
aca
gabi
sibo
uren
urya
wick
##Cim
##Vel
##cop
##gla
##vag
ampon
andal
kupan
ulada
ultad
##bear
##lung
##mall
bergen
##asang
##maria
ahalata
itatibo
sasayon
##Binago
##Panama
##bayrus
##mamasa
##strong
alumpati
##Edition
##eklipse
##Nagtagal
##Organisa
##komunyon
##tinedyer
##aseksuwal
##konstante
##pandiwang
##peminista
##probisyon
##Muratorian
##binansagan
##malalambot
##mekanikang
##neoklasiko
##phenomenon
##sawimpalad
cum
##Us
ikim
itig
moro
utes
wart
##Ryo
akulo
binus
edong
wasay
##Himp
##July
##Mats
##abor
##etno
##full
##krom
##lega
##sumb
ropiya
sikulo
##Kolon
##Polif
##agwat
##pagng
##Bowell
##Modern
##Orange
##basang
##bolang
##pagong
##saping
##Malamig
##abalang
##degring
##genital
##Harrison
##Inilikha
##mabundok
##nagdaang
##nakahiga
##pagaaral
##presyong
##ekilibrio
##harmoniya
##maglingkod
##mailalapat
##nakararami
##akomodasyon
##heograpiyang
03
ame
ife
pre
labo
##BBC
##Eto
##Mey
lakip
sance
##Conn
##Hila
##Lago
##Mina
##Trib
##mart
##taka
##trad
##ulam
arkang
etsang
##Cordo
##Crete
##Jaime
##Plata
##balig
##bulba
##sigur
atemala
rantiya
##Ruther
##henero
##iimbak
##pildor
##Colosas
##Species
##rosaryo
##tandaan
##website
ormalidad
##Aurelian
##Independ
##Polifemo
##inilatag
##komersyo
##konsehal
##konektado
##pagtutuon
##sinadyang
kidiyosesis
##Management
##kompletong
##nagtatagpo
##Blumentritt
##Engineering
##ipagpalagay
##itinatanghal
##beatipikasyon
##panghihimasok
cci
bero
uler
##1.8
opera
yawan
##Falk
##Majo
##Pagh
##bias
##birt
##diab
##kaap
##lamu
##lola
##saga
##sugp
alanse
hangad
##Edgar
##Nepos
##napah
##pangl
##talim
##tolda
##trout
##Arabic
##Malayo
##Sannio
##Bolivia
##Sinauna
##diumano
##humalik
anthropus
##Congress
##Himalaya
##kabaligt
##naghanda
##specimen
##artilyero
##literaryo
##magdagdag
##pandamdam
##plebisito
##Babilonyano
##Statistical
##nagsasarili
##Inilalarawan
##abnormalidad
##Confucianismo
44
##MN
ayat
iper
opat
vius
wers
##Lav
##Ler
##Ves
##rut
POCOR
galan
iniit
obang
water
##aani
##drop
##luto
##must
akdaan
alamus
dalang
uwento
##Versa
##final
##found
##kubol
##milit
##multo
##paiba
##satel
##uulit
sterdam
##Surviv
##kahana
##naming
##Keeling
##NAPOCOR
##Studies
##matalas
##tinatab
##Amorsolo
##Communic
##Inilipat
##Nestorio
##Parehong
##aerobiko
##magbitiw
##Amsterdam
##paglilihi
##manliligaw
##pampakalma
##ipinagbawal
##nagdaragdag
##Sosyalistang
##makapagpatuloy
##transkripsiyon
hor
##AK
##nh
eoro
estr
etal
loro
##EFC
##Naa
##Naz
##bor
akain
imtim
itage
tapat
ulina
wakin
##Nept
##Nora
##2016.
##Islan
##Nagpa
##Orden
##balon
##balot
##helix
##pagod
##three
lemento
osongul
##Pagbub
##Pagpup
##campus
##pintig
uthority
##Lapiang
##hinalin
##kasegur
##pampuki
##problem
bergensis
##Nikolaos
##function
##hinaluan
##pagdinig
##pantasya
ekswalidad
##Chosongul
##Pamahayan
##baryasyon
##naghandog
##nagpapaga
##nagkasakit
##pagkatunaw
##polymerase
##tinatablan
##argumentong
##morpolohiya
##Ortodoksiyang
##singkahulugan
##espesyalisadong
arda
##dup
ulino
##Deng
##Kang
##Last
##Mill
##Mori
##Stud
##salo
##tomo
##wind
biyana
ukulan
##1992.
##Hezek
hinyero
lesiast
##Epifan
##Haredi
##balbal
##katump
##menstr
##mobile
##stroke
intahang
ramdaman
##Baptist
##Florian
##Joannes
##Ptolemy
##Sinakop
##balakid
##kamatis
##panggug
##patrong
##pinatat
##taktika
##Bismarck
##Electric
##Karagdag
##Margaret
##audition
##embahada
##heresiya
##kwantiko
##masusing
##katalaban
##Bagumbayan
##nagtitipon
##tatlumpung
##paglaladlad
##demokrasyang
KH
##lg
irog
kaku
sela
akios
aksil
ardia
bados
mutan
riage
##Agad
##Baal
##Hera
##Zius
##aliw
##lagi
##meas
##prat
##stig
atakas
ingkad
ulgado
##Pilip
##These
##Youth
##akson
##dalas
##letra
##nutri
##taksi
##white
unawang
##Anthem
##Kuwait
##Mactan
##Marcus
##mahati
##pinagb
##sakong
##Huwebes
##Ismaili
##Konserb
##Literal
##Pagkain
##damuhan
##kultong
##Barbados
##Ziusudra
##ihiwalay
##mediebal
##pagkakam
##Indonesya
##Koptikong
##Posibleng
##Seguridad
##naunawaan
##Rutherford
##nagdarasal
##napapansin
##pangsining
##paglilinang
##nagdudugtong
##narereplekta
##Labindalawang
##international
RM
tif
##Ey
,700
omez
tila
wall
##Kus
##Ange
##well
anting
##Alpab
##Irish
##Kawan
##Labis
##bakod
##libre
##pansi
inianus
##padala
##status
eachment
##Basilis
##Filipin
##Shariff
##itinago
##labasan
##lumipad
##pagboto
##Caucasus
##Epifanio
##Sumerian
##lamuymoy
##mawawala
##nagtakda
##pagbigay
##paniwala
##tinamaan
##Nagmumula
##katandaan
##kilometre
##kongkreto
##maskulino
##palawakin
##Pelikulang
##Tesalonica
##pagmomodelo
##pormulasyon
##rehabilitasyon
du
arot
bies
##Adb
##Pah
##Tub
##XIV
##rod
aliko
craft
ennis
hecus
juana
uport
##Dana
##Joey
##Moon
##Paph
##arch
##view
atista
ensive
hikawa
labang
mburgo
##Hepha
##Kazan
##Okina
##based
##binhi
##carbo
##idini
##pasko
##uugat
version
##Bughaw
##Decius
##Mabini
##cortex
unggaban
##biglaan
##depekto
##karibal
##nasulat
##pagdada
##umatras
##Nagdulot
##binabago
##mekanika
##nagsanga
##numerong
##pinulbos
##humihinga
##pagtatago
##Repormista
##katapusang
##Hippocrates
##Karagdagang
##manananggol
##radioactive
##Apostolikong
##pinakamainam
##pangkalikasan
eds
icos
idon
west
##22.
##220
##Cic
##Pao
##thy
abala
night
##1881
##Sula
##eudi
##hero
##lobe
arkiya
edyang
inette
klawan
##Binuo
##bigay
##binab
##coast
##endok
##kagit
##layer
##ngala
##pulta
##Burgos
##Jovian
##income
##inisip
##sinipi
##taguri
amansaan
##Finnish
##Aemilian
##Carthage
##Kawikaan
##alkimiya
##manunuri
##masulong
##pagtawid
##pultaong
##Iglesiang
##pabutihin
##idinisenyo
##kapatagang
##sindromang
##sumalungat
##Kapamansaan
##alituntuning
##pilohenetiko
##komprehensibong
833
isy
##AC
##lp
mine
##deb
##ido
iguin
rated
reres
ugtug
##Corn
##Gius
##Macc
##Xing
##bika
##dini
##jamo
##nagn
##such
eonato
hasang
##Album
##Gomez
##Prize
##Thrax
##agent
##helik
##Bangsa
##gameto
##kahong
##konser
##orient
mamalaki
##Vulgata
##adrenal
##pamahid
lathalang
##Brothers
##Dioscoro
##awtonomo
##inaakala
##kimikong
##mangaral
##mapainam
##nakakain
##nakikota
##pangatlo
##binibigay
##economics
##logograpo
##longhitud
##makatakas
##marijuana
##Alemanyang
##Associated
##buumbilang
##lathalaing
##nagdeklara
##nagtatagal
##negosasyon
##pagbubuwis
##tinagurian
##pilibustero
##maintindihan
##Romanisasayon
##heterosekswal
atin
dist
isay
lies
##29.
##Bok
##Jom
##Nip
##STD
##upd
arium
chise
hawak
sante
##Kuba
##kana
##toro
tikang
ulisya
urance
##1939.
##Again
##Binat
##komer
##naiba
##paham
##sigaw
bitahan
regular
##Trebon
##biyahe
##nakasi
okumento
sangguni
##Chlorus
##hinuang
##kukunin
##nagamit
##nagpaga
##ngiping
##paitaas
##Imperyal
##Istadyum
##Maldives
##Valerian
##aabusong
##operador
##pinalala
##katipunan
##probinsya
##strandong
##nominasyon
##sinalungat
##Trebonianus
##magkasamang
##kompederasyon
oon
vet
eded
hele
utio
##Fag
##eye
##see
brius
heast
inary
##Beat
##Bres
##Hika
##Pers
##Pias
##Team
##blog
##bull
##welf
alipas
##Cocos
##Itaas
##Viola
##ammon
##bapor
##gipit
##kahin
##night
##patut
##plema
##Cavour
##Dumaan
##Lupong
##Tennes
##impluw
##inilul
##kulugo
##latian
##prupes
ahamakan
##Iniulat
##naglaon
##naipasa
ungkulang
##Arcadius
##Giuseppe
##Seksuwal
##ipinamam
##tahasang
##Tennessee
##kalahatan
##malalalim
##panglahat
##kaluwalhati
##kapahamakan
##pagkakasala
##nagpapalitan
##pampamahalaan
PI
jj
amoy
bara
ched
misa
syal
wara
##Yun
##lep
##pod
hento
lisan
##Alin
##yang
utlang
##Chris
##aksis
##nalag
atayang
##Origin
##Phocas
##Tobago
##Toledo
##Venice
##inihaw
##mabala
##period
##Itinala
##Itinuro
##Lorentz
##homosek
##korteng
##narsing
##pambasa
##rebulto
##Camiguin
##makitang
##pagkabuo
##patindig
##Filipinos
##Kuwaresma
##Petronius
##mapapansin
##komputasyonal
##ipinahihiwatig
##maipapaliwanag
##subkontinenteng
LO
pub
char
diyo
otoo
yros
##161
##Six
##Zoe
##suc
lonas
rence
stone
ubuan
##Gong
##Meso
andili
ctions
etween
##cytok
##ident
##tinta
atikang
##Avitus
##Bayani
##Contra
##Eslabo
##Hadith
##Promet
##pumasa
##senyas
##testes
position
##Marcian
##Moldova
##Okinawa
##Watawat
##naaakit
##pagkaga
##pinagsi
##Bacteria
##Karabakh
##maibigay
##manugang
##Euphrates
##Guillermo
##eehersisyo
##nagtatangi
##teleponong
##testimonya
##tinitignan
##ipinagbibili
##pampanitikang
cei
##Qa
ffel
tail
tina
##Ins
##Inu
##Jon
##Mem
atuan
ended
entai
satin
##Eura
##Maha
##Tzim
##food
##help
##uhog
ennius
syonal
yayang
##Manch
##Treat
##himno
##indul
##kapus
##panti
##pasak
##tibay
akilaan
iningil
ugunita
##Montel
##lagyan
##pagses
##parasi
##Antigua
##Grenada
##Railway
##paminta
##through
##tungkod
atehikong
##Animalia
##Etruscus
##Olybrius
##bibigyan
##iginuhit
##interesa
##national
##Herennius
##pangmadla
##siyasatin
##Aemilianus
##Patakarang
##magbubukid
##nagpupunta
##paglulunas
##Martinianus
##ortodoksiya
##pamamalakad
##pagsusumikap
##tinutulungan
##nakapipinsala
##pampangasiwaan
##kontrobersiyang
fia
yola
yrus
##Ink
##JMA
##Row
eptus
##Banu
##Gord
##Kent
##Pupi
##club
##trep
action
garita
maneho
sesyon
##Buena
##Kapat
##Staur
##Welsh
##antil
##arbit
##bosyo
##humuh
##kusil
##tabas
##Forbes
##kabibe
##kayong
##phylum
##sarian
##upuang
ulatoryo
##Carinus
##Dinagat
##Mercado
##Nagwagi
##Pambata
##abakada
##henealo
##nilitis
##pagbago
##sumagot
##welfare
##Apostate
##Balbinus
##Leontios
##Pupienus
##Tiberios
##pamilang
##tumatang
siderasyon
##Daambakal
##Hostilian
##naghahari
##Anastasios
##Heraklonas
##Staurakios
##Theodosios
##integridad
##lumalagong
##nangyaring
##tatawaging
##Philippikos
##mangingibig
##nagtatanong
##nakalilikha
##boluntaryong
##historisidad
##Protestanteng
ged
noy
upot
viso
##Aeg
aming
hibit
iskes
lying
sible
##Miya
##Pope
##parm
cerius
ininta
##1949.
##doble
##itayo
##makin
##phosp
ronymus
##Guzman
##Libius
##Probus
##batiin
##kawali
##kusina
##kwanti
##pabuya
##parity
likanong
##Barbuda
##Paphlag
##Rangabe
##Ternate
##naalala
##nilabas
##Numerian
##football
##maibalik
##rasyonal
##sambahin
kasunduang
##Anthemius
##Dominican
##Florianus
##Gallienus
##Glycerius
##Palestine
##Tzimiskes
##isolasyon
##ispektrum
##pagsiklab
##Basiliscus
##Copronymus
##Quintillus
##apatnapung
##nagbabalik
##napakahalaga
##transeksuwal
##estratehiyang
##kaluwalhatian
##nakakatandang
##napagmamasdang
CP
cep
##82
emat
glag
itre
iyah
luvi
skul
zola
##750
##Iso
##MTV
##SIV
##sip
##uod
achos
bingi
netos
##Astr
##Daia
##Foot
##Pund
##SSRI
##Thom
##kart
abawas
basdos
entist
yasyon
##1930.
##1973.
##Monom
##Mount
##adult
##ganda
##logos
##tulis
##umasa
ephorus
usianus
##Hector
##Kievan
##Pisika
##anemia
##pirata
##shaman
eklarang
##Pamilya
##Sibugay
##baguhan
##repolyo
##umatake
oterapiya
##Majorian
##ipininta
##nalimbag
##pinangga
##sabsaban
##tugmaang
##pagwawagi
##radiation
##Artabasdos
##Bangsamoro
##Monomachos
##Volusianus
##kasalungat
##Kaliwanagan
##Nagkakaroon
##magsimulang
##nakalimutan
##selebrasyon
##pagpapaganda
##punungkatawan
gow
mah
tay
##Hz
alog
yuko
##did
atzes
merer
tonos
vival
##Aged
##Drun
##Pras
##Tula
##dias
##eksk
##kino
##muni
agakat
arning
eiates
veness
##Balat
##Cauca
##Claus
##Dance
##Kitts
##Lekap
##hanga
##lasak
##nanay
##panul
ulgarok
##Branch
##Felipo
##Phokas
##Sakson
##Sampag
##Telema
##Argyros
##Kanabos
##Penteko
##episkop
##paghila
##palakol
##palayan
##pinaghi
##sasapit
##sikoana
##Bikolano
##Drunkard
##Isaurian
##Tinchang
##Vatatzes
##transfer
rogennetos
##Boulgarok
##Lekapenos
##Paphlagon
##Stammerer
##abenidang
##napinsala
##Castellino
##Kalaphates
##Nikephorus
##Theophilos
##ipalaganap
##paghuhugas
##papalaking
##Botaneiates
##prupesyunal
##pinakamatanda
##Boulgaroktonos
##tagapagpatupad
ekn
oun
##89
##KG
hyon
uvre
##145
##4,1
##4.5
##Ark
##Bid
##Cli
##Fac
##dys
##eli
##mec
##pob
lasto
##Kish
##List
##Tomo
##Umay
##kola
##lila
##nata
yenang
##Bened
##Dante
##Mayon
##fauna
##genre
##tribu
asiwang
##Peters
##Salmon
##kinaga
##lambda
ratikong
##Alberto
##Phoenic
##guerril
##orbital
##pintura
##usapang
##Akademya
##Hukumang
##palarong
##malikhain
##pagsusuot
##pandibdib
##panglabor
##Kagandahan
##inilalapat
##lumalampas
##pagkabulag
##kooperasyon
WH
pro
sec
avor
##DSM
##Kog
##Vie
##thi
buyas
ilius
stion
##Apol
##Jian
##They
##bibi
##klab
##nodo
##tira
ingala
iwalag
lohoso
sandig
ulaang
##Subic
##kawad
##plaka
##pulso
umanhin
##Androm
##Cayman
##Modelo
##Odisea
##Second
##marang
ugaliang
##Glasgow
##Martino
##Parokya
##Roccavi
##Sampung
##itatayo
##kartang
##nabuong
##sibuyas
##kahatian
##matalino
##pasalita
##pluidong
##rayumato
##tumugtog
##Argentina
##hepatitis
##minoridad
##palakasin
##taktikang
##dalawahang
##inililipat
##kitambayan
##tumatakwil
##matatanggap
##transaksiyon
##grabitasyonal
##pangungumpisal
##EM
enne
eres
hale
isig
temp
tice
##Eva
##Rel
##esc
##haw
chnic
erald
eseta
ments
sical
ubilo
ulate
wigin
##1600
##Guer
##Guin
##Hand
##Live
##bono
##krup
##when
ayashi
utunan
##Jonas
##Parry
##Pearl
##intra
##padre
##tukso
##Isidro
##Lumaki
##bastos
##ipasok
##teknik
##trutta
##Nalaman
##arthrop
##sugpuin
##Nagsulat
##Pentagon
##Standard
##ibabalik
##lumampas
##akusasyon
##mabubuhay
##palawigin
##kahaliling
##pambobomba
##sekundarya
##pagdadagdag
##ipinapalabas
##pangmatagalan
##pagpapahiwatig
alt
eyt
hog
sir
##az
##pu
reme
rity
uray
##119
##Gui
##Jie
dison
oryeo
##Bush
##Gens
##Rama
##cham
##konb
itigas
vedere
##6,000
##Binib
##Davis
##Embah
##Musso
##dampa
##globa
##villa
##yapak
alamuti
ensyang
inalist
##Alyado
##Comics
##kalesa
##psycho
ebatihan
##Mesiyas
##Michele
##Natapos
##boltahe
##erehiya
##kordero
##masarap
##masukat
##Barnabas
##Brooklyn
##Scandina
##humahang
##ikalabin
##panglupa
##Belvedere
##bulwagang
##mayoridad
##naghahati
##peminismo
##depresyong
##lumalangoy
##paghuhukay
##tinatanong
##nagtatalaga
##naturalista
##pamumuhunang
##nakapagsasanhi
RNA
rga
##02
##86
##UA
oser
sili
##kno
kwela
uunan
##Nick
##Trip
atanda
##Index
##bisyo
##nylon
gamento
##Arameo
##Hughes
##Maurya
##conver
##diktat
urusahan
##homosex
##inampon
##pupunta
##rubella
##Canarias
##gumampan
##magalang
##makakita
##malabong
##nadarama
##Castellan
##hangaring
##nakahanay
##pangdagat
##salinwika
##Tajikistan
##Tinulungan
##intensiyon
##ipahiwatig
##kaibuturan
##intelihensiya
##paglalarawang
atl
cot
gue
olk
##BA
##CN
bium
oker
##123
##24.
##Cyn
##Kle
##Rip
##nec
##sna
grana
irate
lorop
oyama
worth
##Koto
##Tsar
##crit
##datu
##sick
avenna
entahe
ipitan
rieved
umpuni
##1987.
##Helve
##Romeo
##Salin
##madal
keleton
uryente
##Dragon
##Lisbon
##Pastol
##classi
odhisatt
##Andorra
##idagdag
##itakwil
##Children
##Lawrence
##Panlahat
##dalangin
##natamasa
##Andromeda
##Humantong
##Republica
##magpaalam
##matagalan
##Presidente
##aritmetika
##nagsasanib
##pagtuligsa
##impeachment
##eksplorasyon
##katunggaling
##magkakalapit
##pangingibang
##Chalcedoniano
##transpormasyon
ED
zia
orro
pain
stre
tomo
uson
##Awt
##Nel
##Qin
enous
etary
kleta
##Desi
##Quin
inggal
unguna
waring
##Adolf
##Ambro
##Gamit
##Minor
##Oseas
##Palat
##Sarah
##Shavu
##himig
##kanto
##koral
##serti
dugtong
##Lohika
##Paring
##Ronald
##Textus
##buksan
##strata
##tambol
atistics
iniwalag
organisa
ynthesis
##Jehovah
##Matagal
##Pangaea
##Pozzolo
##Taliwas
##nagalit
sidensiya
##Receptus
##natututo
##pagbibin
##pagkitil
##tumatagos
##eksklusibo
##Ipinakikita
##espesyalista
##kontemporaryo
##pinakamahirap
##pinangyarihan
06
,00
fei
gda
hun
imu
##04
keng
uyot
##165
##Cai
##Oak
##Yor
##ank
##fig
berte
integ
itama
omori
rober
vised
##1878
##Axis
##Gaza
##Gull
##deli
##shar
##sink
pirito
tiglio
##Albar
##Carlo
##Glenn
##Peace
##enter
##mabab
##nadad
##predi
##short
##storm
risinta
steroid
##Agency
##Goryeo
##Mental
##lingua
##Tandaan
##primary
##tinalik
aramihang
arangalan
##Kalookan
##Mombello
##Tenyente
##pagtulak
##Benedetto
##naingatan
##nakabalik
##opisinang
##pagbabang
##paninigas
##Epiphanius
##Versailles
##kagitingan
##mamahaling
##paghuhubog
##salungatan
##kalkulasyon
##magsisimula
##pagpapataas
##pangalagaan
##pumapalibot
##cc
##ye
bird
ffic
head
more
roup
tium
##159
##Kid
iniig
miral
pinan
rador
ugawa
ulani
##Abad
##Jane
##Komb
##Lour
##Lund
##Skop
##bios
##core
##plek
ektibo
itismo
##Kanal
##Sukot
##amphi
##coach
##frequ
##label
##parin
##round
paunlad
##Asiria
##Graves
##compet
##kaloob
##sample
ambilang
hinayang
##konsist
##makipot
##nilagay
##Heritage
##Magazine
##iniugnay
##pinaghah
##relatibi
##republic
##Gumaganap
##kalupitan
##malakihan
##nakadikit
##pinalayas
##ipinangako
##nailathala
##nakatalang
##pagsusugal
##sentralisa
##sikologong
##monolatriya
##republikano
##subdibisyon
idelbergensis
##nakipaglaban
##sikoseksuwal
##distribusyong
##inhenyeriyang
##lahatambilang
rug
wah
lock
##126
##157
##Aff
##Era
##fri
itude
ubdob
##Anto
##Hain
##amen
##bush
##gaas
##many
##rect
stance
yatiko
##1989.
##Chart
##Kulay
##Luzzi
##Tumut
##impos
chasing
##Sabath
##rekomb
##restor
ikipedia
##Caspian
##Granada
##Paglili
##aproksi
##buhayin
##maestro
##magkano
##paghuli
##quarter
##Hinahang
##Language
##Pontific
##taluktok
##Kobayashi
##pagtatamo
##itinatanim
##makukuhang
##pambatasan
##tanghalian
##sinusubukan
##mangahulugan
hys
##DP
aang
amay
apal
tosa
vely
##31.
##piy
erior
kashi
naldo
rella
##Mind
##Ural
##Zhou
##dark
##lact
##1981.
##Bilog
##Tsile
##karum
egomena
##Indies
##Mother
##aliwan
##diagno
##middle
##ninong
ultasyon
##Alabang
##Austral
##Dagupan
##Kongres
##Lubhang
##ginugol
##opsiyon
##pagdumi
##Hezekias
##Medisina
##nangaral
##nilalaro
##Antartika
##Inaangkin
##Parkinson
##President
##balyenang
##lesbiyana
##pangsanay
##pasaporte
##tumatawid
##ensiklopedya
##naninirahang
##pagkakakasal
##manggagalugad
02
PM
gad
ited
shev
##Dah
##Hyo
##Ist
elekt
iyera
sagan
ukydi
uston
##1882
##1895
##Dead
##Odin
##Puri
##Shim
##kiki
##mark
epende
ikayat
nakulo
##1944.
##Hamil
##Pagli
##benti
##lower
##pilat
##pinal
##Austro
##Ibaloi
##barbar
##camera
##canton
##helium
##hippoc
##ingles
##istrep
##pabagu
##varphi
agalugan
##diyablo
##dramang
##naglaro
##Inutusan
##Thoukydi
##cytokine
##Ekwasyong
##animasyon
##matingkad
##nagtangka
##nakasabit
##pananakot
##boluntaryo
##medikasyon
##sosyalismo
##sosyalista
##sintetikong
##pagkakapareho
jar
##AH
elia
kiah
kidu
##1.7
##Abi
##Ade
##tom
kahoy
klabe
yushu
##Alon
##Kara
##Maru
##Nali
##bara
##cong
##isan
emikal
##exper
##magig
##malas
##metre
##relik
##rurok
alaksan
lililok
##Baylon
##Comple
##Enkidu
##Eugene
##Manalo
##konsul
ayanihan
riyanong
##Biglang
##Cordoba
##higante
##kusilba
##lateral
##mandato
##Mussolini
##Palakasan
##Nangyayari
##eksepsiyon
##makaramdam
##medisinang
##talaarawan
akinabangang
##Kabihasnang
##pagpapababa
##tagapagturo
##pagkakatugma
##Iminumungkahi
##proporsiyonal
##pangmaramihang
##cr
akap
iser
zana
abada
andag
eptah
##Hond
##Koko
##Mern
##Prof
##Will
##merc
##sede
##sulo
otismo
tivity
wakang
##Asemb
##Magad
##Paulo
##Sheng
##danay
##kinan
##kinok
##lente
##Barlow
##Castro
##Danube
##Kontra
##Martes
##Nature
##Siyang
##Trento
##bahura
##kimiko
##vacuum
inaharap
##Bandang
##Salerno
##Umayyad
##nakapap
##nilayon
##tiyuhin
##batikang
##kainaman
##maninila
##marhinal
##Diyosesis
##Merneptah
##Valeriano
##aparisyon
##pagsuntok
##tanggihan
##teknikong
umungkahing
##imigrasyon
##kuryenteng
##ungguwento
##Thoukydidis
##nakakarinig
##pintakasing
##Pagpapahayag
##konsumpsiyon
##pornograpiya
##tinatagurian
##nagpapakilala
##panghinaharap
MF
fy
nor
elop
gard
##37.
##450
##Gag
##ost
##ran
amban
ibbon
rides
siyan
##18.0
##Ener
##Ikap
##Ordo
##Tony
##Trig
##glut
##hubo
##hypo
##meio
ection
tauhan
##1965.
##Court
##Marin
##Matut
##Todos
##pinir
atirang
inisita
##Andong
##Market
##aampon
##anyaya
##ganoon
##tanika
##umahon
kripisyo
##Bolkiah
##Euclide
##Lourdes
##Facebook
##lumaking
##magawang
##napakaka
##puntirya
##Itinakwil
##Paghahati
##kabinihan
##kabukiran
##makakapal
##naisagawa
##wawasakin
##Kasarinlan
##heograpiko
##nagtaguyod
##nakagawian
##nakakakita
##nakasarang
##tutulungan
##pinapanatili
##Administration
##nagdadalangtao
##pinakasimpleng
hao
nab
##08
##Lil
##Pug
##Rif
##Sax
##hat
uties
##Gand
##pork
ophyta
opobya
soulet
##Allen
##Aztec
##Films
##Homin
##kakan
##Ikatlo
##Kanada
##Sappho
##fabada
##gurong
##lapian
##neural
##pabago
idelberg
##desimal
##kataong
##tumalon
##umaalis
kalakalan
##Sikhismo
##antibody
##heretiko
##Augustino
##kasamaang
##nabigyang
##pormasyon
##teoremang
##Kinalaunan
##electromag
##nagwawakas
##nakikipagt
##tanggapang
##telebisyong
##espesiasyong
##kalalakihang
##representasyong
dt
hyl
muz
##AP
ilip
lary
niig
obra
uoro
uted
yaku
##AKB
##Ron
##Rot
##Syd
##Wan
ektib
itaka
##1762
##Argo
##Auto
##Eras
##Male
##Masi
##Quan
##Sint
##Sudd
ulsyon
##Later
##Surah
##Tudor
##parol
##party
igilang
langkas
ukalang
ulatang
##15,000
##Adonis
##Angglo
##Harold
##Munich
##Pareto
##botong
##flight
##hulang
##sultan
##ugatan
##Baroque
##Namuhay
##Saitama
##fertili
##konsekw
##nabibig
##daluyong
##pinagbab
##Guadalupe
##Nilalapat
##katuwiran
##panggitna
##sinasakop
##Naglingkod
##Uzbekistan
##basketball
##nagmamarka
##pagbabalat
##palaisdaan
##deskripsiyon
##itinataguyod
##pagtutulungan
##liberalisasyon
##pagpapahintulot
##84
aten
done
ekos
irmi
itit
ubat
ushi
##paw
banal
digan
odelo
roman
##1521
##Stap
##hepe
##luna
##pabo
entera
forman
manang
opause
ubling
##Josef
##Pavia
##draft
##Bering
##Lazaro
##Sydney
##family
##nagpam
##opensi
##photos
##ulirat
stradong
##Nirvana
##Swedish
##Veritas
##atomika
##bronchi
##naiisip
##pagpuri
##religio
gagamitan
##Asturias
##Broadway
##lumagpas
##pagunlad
##pamamasa
##Pangalawa
##kognisyon
##lumalagos
##monastiko
##probabili
##tumalikod
##Heidelberg
##Sampaguita
##katumpakan
##konsiyerto
##lingguhang
##nabibigyan
##panggawain
##sementeryo
##Lehislatura
##arkeologong
##nababawasan
##tagatanggap
##restriksiyon
##tinatangkilik
##eksoptalmikong
eal
obe
pia
sop
sue
##WW
chez
etti
hoku
pool
sche
##431
##HTT
##Teh
##Who
ators
ctica
roduc
##Bong
##Over
##iyak
##lesb
##what
adulas
totono
##Geoff
##Hukom
##anyos
##phyla
##ritmo
##volum
panahon
##Alcala
##Bayang
##Pakita
##charge
##ilabas
##mahawa
##rating
##reseta
##Matanda
##Sarawak
##isinuko
##panakip
##paradig
##sinikap
##Honduras
##Triangle
##apokalip
##dumadami
##kantitad
##maluwang
##nakatago
##platform
##superior
##Botanical
##Australian
##encomienda
##hinalinhan
##isinaalang
##mailarawan
##pagbubuhat
##artipaktong
##inaprubahan
##nakararanas
##Naglilingkod
##distansiyang
##mitochondria
##pandarambong
af
sc
hyd
##AM
hium
ibol
ilom
osex
udas
ussa
yosa
##KGK
##Poc
##Saw
##Xue
ladel
unero
##Carp
##Cerc
##Kart
##Stok
##poll
##side
##talo
ilagid
wigang
##Caram
##Chuan
##Krako
##Tunay
##Umaga
##cycle
##iikot
##lilim
##niyon
##perio
##rayum
##shock
##systo
ambalan
##Nalala
##kripto
##punang
ograpiko
politika
##Charter
##Depende
##Episcop
##Naitala
##Nakamit
##Sigmund
##antisem
##lumusob
##optical
##sikayat
##sumpong
##Philadel
##hardware
##luntiang
##pagtalon
##primarya
##uugnayan
##Authority
##Palestino
##ebidensya
##natatapos
##operating
lilingkuran
##awtonomong
##komplement
##palaisipan
##situwasyon
##hinahangaan
##kinakaharap
##mangatwiran
##nababalutan
##Pananaliksik
##pinakamababa
##sensitibidad
##ekstinksiyong
##homosekswalidad
ffe
lena
rios
sium
##Cad
##Yur
acion
alaan
enong
lides
mahin
ussel
##Leop
##Rice
##obra
andula
bachev
isahan
##2018.
##Catar
##Crick
##Hardy
##Riles
##Virus
##idolo
##kalag
##pagan
##while
akanang
##Cronus
##Joshua
##cavity
##franca
##mapasa
##siping
##taguan
litikong
##Alejand
##Humabon
##ampunan
##lumakas
##marihuw
##sultana
##umiiyak
##Amerindi
##Exchange
##alintana
##nagpapas
##narangha
##paglakas
##position
##sabungan
##tanghali
##diborsiyo
##pintakasi
##naglathala
##biolohiyang
##matitinding
##korporasyong
##nagsisiyasat
##pinapayagang
##talahuluganan
##nagsasanggalang
ms
pu
rk
ukt
piga
poli
ursi
##451
##Str
##fis
##lun
ipela
sigan
turon
waksi
##1888
##Chok
##Hind
##Marm
##Pied
##Ping
##bril
##buli
##tung
##yoga
amaang
histro
sesang
##1996.
##Asawa
##Bhaga
##awtom
##bulsa
##hidro
##inaas
##itago
atayong
retaryo
ropikal
##Bakter
##Harbor
##Hinati
##Krakow
##Record
##aaklas
##gumuho
##turuan
mamahala
##Sanchez
##ateismo
##distink
##hominid
##panghim
##service
##tumuloy
##Konstant
##arkipela
##dignidad
##nakadama
##nakipagt
##pangkons
##parasito
##pinagsal
##sinturon
##sumulong
##Palasyong
##naghangad
##nagpapali
##pagkikita
##satellite
##Operasyong
##Tinangkang
##ekolohikal
##tumutugong
##tumutugtog
##itinalagang
##magkapareha
##antilegomena
##makasaysayan
##sumakabilang
##heidelbergensis
hd
mea
ahim
arra
rima
taon
uhaw
##3.4
##Tyn
ellig
enyal
ikero
reole
rimen
##Cund
##Heis
##Mati
##Mort
##Part
##Plut
##alsa
##dela
##grab
##uran
italia
##Bakit
##Daigo
##Hukbo
##alila
##chang
##honor
##inpin
##orang
##parly
##tract
insulto
##Belize
##Elohim
##Suzuki
##Urbano
##areang
##diktad
##perlas
##yogurt
inamarca
##Indiana
##Turkong
##yerbang
enerasyon
##Eukarist
##Lombardo
##Salaysay
##niluluto
##palagian
##Edimburgo
##minoryang
##nagpataas
##pamalagian
##panghinang
##pederasyon
##transisyon
##kapitalismo
##pampamanhid
##Cundinamarca
##patutunguhan
ON
aco
ett
omu
komp
mple
ulma
##1,0
##Hur
##gri
##lig
##opo
usand
##1904
##Alps
##Basa
##Nagi
##Saba
##Sabi
##Shaw
##Taal
##drap
##isol
ayunan
basbas
orbuto
##Carto
##ataki
##berso
##hiper
uluwang
##Martyr
##Purong
##aktong
##hinuli
##kamera
##nangha
##radius
andertal
##Padilla
##hayskul
##kabalik
##kutsara
##mapatay
##pumabor
##semento
##umiinom
##Bachelor
##Ottomano
##adhikain
##mapakali
##nailabas
##pagdaram
##eskultura
##humihinto
##maghintay
##nabubuong
##Antarctica
##bariasyong
##kapabayaan
##nagbubuhat
##paghuhukom
##nahihiwalay
##nomenklatura
##pansamantala
##sosyalistang
##nagrereplekta
##Kakristiyanuhan
alag
atta
moso
riwa
##Bes
intas
liday
omial
##1887
##Care
##Isis
##Oreg
##Shem
##said
##susp
##zero
rekord
##Ceres
##Italy
##Optim
##Taino
##Tamil
##disko
##solst
##Skyway
##abstin
##dahong
##inbari
##inires
##maalat
##siguro
##Anthony
##Georges
##Soriano
##kurdong
##Nakikita
##Security
##dadalhin
##isterili
##nagmaman
##pumapang
##tatlumpu
##umuugnay
##universi
##bibliyang
##genitalia
##panandang
##Gregoryano
##maaasahang
##mararaming
##kaalinsabay
##inbariantong
##nagpapatibay
##nangangalaga
##proklamasyon
##Pangkaraniwang
04
kda
vum
xia
##IG
bias
oksi
##Non
##gol
kapal
retto
##122.
##diam
##iisk
##impl
##muse
initis
sawsaw
unggab
##Liver
##Space
##Story
##hiram
hampton
ilanlan
litikal
##Nasabi
##Tigris
##mapagk
##master
##pampro
##pangma
##Biliran
##Konstit
##gilagid
##mapunta
##saanman
##Hamilton
##Kinilala
##estimulo
##ipalabas
##madugong
##malutong
##pamitpit
##solidong
rutektahan
##Amenhotep
##Margarita
##depresibo
##kalkulong
##natutukoy
##pagsipsip
##Convention
##pagkalason
##pagkalinga
##Zoroastrian
##nasyonalidad
##demonstrasyon
##matutunghayan
##pinaninirahan
##mikroskopikong
Hg
alap
ised
rike
witz
##Gao
##Hux
##ful
culus
lical
##Aeta
##Akem
##Ruff
##bait
##best
##chat
##edit
aridad
gadong
utiona
ygdala
##Dewey
##Kuala
##Pansa
##Talib
##alveo
##garap
##istat
##sugun
amentum
ortable
##bawang
##bumang
##ispekt
##sanang
linasyon
standing
##Arabeng
##Clinton
##Eugenio
##Gandise
##Kolonya
##Stewart
##antipar
cclesiast
##Baybayin
##Tinataya
##pagtibay
##pinagdud
##prayleng
##Gorbachev
##hormonang
##ipinapasa
##makibagay
##nagbabala
##naipakita
##nasusukat
##paghihiwa
##tumiwalag
##pampangang
##pangkrimen
##pinabayaan
##domestikong
##pagmamalaki
##ideolohiyang
##nakasanayang
##Kinakailangan
,80
cka
eur
pop
utt
dies
enny
hate
wata
##3.1
##550
##Box
##NLE
##Niz
##Sit
##mur
bagay
esian
ideon
patan
renta
##1598
##Pose
##Week
##path
##poto
abango
atotoo
henong
sasama
utuban
##Abkha
##Espes
##Grant
##Kalin
##Papal
##beach
##drive
##hinip
##histo
##kapir
##kauri
##lumot
##naika
igliano
panyang
ugtugin
##Arnold
##Eiffel
##Nawala
##magdad
##nabasa
pakitang
##Damasco
##Fatimah
##Magkaka
##dinalaw
##kapanat
##sumayaw
##Levitico
##Poseidon
##chemical
##makausap
##military
##multiple
##pangkala
##papaloob
##ereksiyon
##hemispero
##impektado
##isinulong
##mahahanap
##makabatas
##paggising
##pagsisisi
##paunlarin
##salakayin
##Valtellina
##diplomasya
##gumagaling
##humihiling
##pneumoniae
##Naninirahan
##selektibong
##seremonyang
##pagpapalakas
BS
IG
cker
ikon
isyu
##Hib
##haS
##old
ekord
eyama
##Blan
##Magd
##bote
##dura
##goma
##loka
##perm
iyasat
ugutan
urhiya
##Faero
##Sober
##Strip
##aksiy
##akust
##balit
##hatid
##lugod
isahang
sismong
ulevard
##Haligi
##Huxley
##Invest
##Ligang
##maitat
##nagded
##nanaog
##sariwa
##Alhebra
##Cecilia
##Paulino
##Sinulat
##gumugol
##kaharap
##pagliit
##sinumpa
##uumpisa
##Piedmont
##Santolan
##atakihin
##hektarya
##kababaan
##masasama
##nagnakaw
##Euclidean
##Sanskrito
##adiksiyon
##lumalabag
##tagahatid
##makakasama
##mikrobyong
##pagbubukod
##pinetsahan
##salawikain
##pagmamaneho
##tinitingnan
##nakipagtalik
##pinagbawalan
##pinaniwalaan
##Deuterokanoniko
ml
lux
aboy
grad
impi
pers
##COM
##Did
##Oso
biate
rical
##Card
##Four
##Verd
##feed
alamak
ampung
latequ
urgery
##Bahag
##Class
##imber
##kalig
##kinab
##pulit
##times
##watak
aringal
ressive
yansang
##Itinag
##biolog
##kwarto
##manang
##pangit
##patula
##sirena
risasyon
##Nagtaka
##naghati
omolekula
##Espirito
##bautismo
##dagdagan
##ikinabit
##magsilbi
##mongheng
templatequ
##Namumuhay
##binayaran
##pinapasok
##potensyal
##sinisikap
##Pinamunuan
##ipinagbili
##Kumbensiyon
##dramatikong
##lehislasyon
##probisyonal
##organization
##kabaligtarang
##01
itar
kien
nabi
osso
##Cis
##IOC
##Yog
##dap
##imy
endor
iform
itlog
ngang
pidio
siklo
##1858
##1891
##Baka
##Jain
##Laro
##Paro
##Plac
##spor
##tsar
kasong
##Ville
##great
##kinap
##limos
##pilas
##roads
osyador
##Morris
##Nathan
##Palace
##Sargon
##aktwal
##bating
##butiki
##ginang
##hadith
##ihanda
##palayo
##taripa
##tsismo
##Pablong
##Saharan
##dinakip
##maiitim
##markang
##patatas
##Tumataas
##magtungo
##pagpapam
##pambutas
##panimpla
##Anglikano
##Greenland
##dinaluhan
##mahuhusay
##nagpulong
##tambilang
##kadakilaan
##negosyador
##salaysayin
##kasaganahan
##oryentasyon
##proposisyon
##Pagtatanggol
##rehistradong
##Inhinyeriyang
##transliterasyon
TS
100
ald
iit
##KH
sago
##149
##Gog
##Hir
##Num
##tho
##vas
boran
rekom
##Deut
##Sham
ikilos
inggit
unsuan
##Arsen
##Corre
##Jimmu
##Keiko
##halaw
##lagay
##tanga
##Edessa
##Guinto
##Gustav
##Madali
##Manual
##Season
##script
##senado
atakutan
##400,000
##Iniutos
##Upanish
##alindog
##bayarin
##nahanap
##release
alintawak
##Tokugawa
##naiibang
##pastoral
odhisattva
##Ikapitong
##Kabunsuan
##kamaliang
##katagalan
##pagturing
##Miyerkules
##ahensiyang
##koronasyon
##misteryong
##inimbitahan
##katarungang
##Nacionalista
##pamiminsalang
##pangkahalatang
OI
,87
hos
hur
##AN
agne
imei
lase
ubyo
##109
##Cit
##won
##yan
bihis
garda
kilik
litro
ually
ucker
uging
##1893
##Agam
##Chuo
##Cost
##Dame
##Eric
##Gent
##Kuro
##Pesh
##asam
##bena
##loop
ansing
ladang
liktad
tional
vernor
##Civil
##Kalip
##Spino
atipika
kalakal
##Ernest
##Gaspar
##Ilalim
##Oregon
##inamin
##istruk
##kulani
##libido
##mother
##pagkad
##sabong
##tagana
graduate
##Elpidio
##Pelopon
##Puwersa
##humango
##kinakat
##kumanta
##makapam
igurasyon
##Hiniling
##maasahan
##maglabas
##naaalala
##parating
##spectrum
##Batsilyer
##nanometro
##pagkabisa
##pantulong
##inabandona
##nakaapekto
##pagkababae
##persentahe
##pinakamaga
##pagdadalang
##perspektibo
##Konserbatibo
##kinahinatnan
##pagkakatawan
##pagpapahinga
##pagkakahirang
haz
hei
vce
##88
##Iz
hali
igop
kyan
roti
vers
##162
##Sot
quila
uklam
##1865
##Schi
##Zion
##kapa
##lakt
##usad
##wini
##1954.
##Edwin
##Kabal
##Madya
##Padua
##Proba
##Sakop
##emper
##kahig
##koreo
ikitaan
ritoryo
toryong
##Krimen
##Skopje
##dihest
##hinihi
##koloid
##tupang
##Palitan
##Tutuban
##malapot
##mapamin
##matriks
##nagpati
##pinlano
##Cristina
##Kabisera
##paghilot
##sinasaad
##tangkang
##Boulevard
##idinaraos
##kahulihan
##kinontrol
##kurensiya
##makikipag
##nahatulan
##nakaugnay
##orangutan
##paumanhin
##paghaharap
##pinawalang
##toneladang
##sirkulatoryo
##taganamamahala
CD
OR
box
fit
lai
mud
agle
ebel
ghoy
inez
rera
titi
ulyo
valu
##23.
##Amy
##Meg
##NGO
##upa
alogo
liter
urent
##1815
##Chry
##Iyon
##Nint
##Sche
##corp
ashion
gayang
uwagan
##Daily
##Kurdi
##Third
##Valdi
##anter
##eskat
uladong
##Dasmar
##Morong
##Villam
##tataas
##torneo
##Liwanag
##Nawalan
##Ordovic
##masipag
##nagtago
##nilipat
##pagdalo
##pumigil
##Siracusa
##iniwanan
##maniwala
##masagana
##tsismosa
halintulad
##komedyang
##pagpapayo
##tiningnan
##Karagdagan
##kampanaryo
##kinomisyon
##nagpatunay
##nagtutulak
##pagkakalat
##pagtatagpo
##reperendum
##sinunggaban
##pagpapakalat
##Internasyonal
##balingkinitan
##tinatantiyang
ET
nis
##MD
agsa
idya
leon
orum
rica
vili
##1.3
##2,9
##Lub
##aid
##fix
anoor
ciago
hashi
laman
sinki
undag
utism
##1862
##1866
##1886
##Boca
##Klet
##Molo
##Orle
##atta
##halu
##huna
##karo
permat
##Gabay
##Kanad
##Magno
##Range
##apela
##cytop
##ipaka
##katag
##mahim
##mahin
##small
##sutla
##talas
tokokus
##Edmund
##Kanila
##Montan
##Suweko
##Warsaw
##kahala
##mapait
##matrim
##nasabi
##pangdi
##pangre
##piskal
inatamis
ukumpara
##hamunin
##inskrip
##inuulit
##madreng
##pagsubo
##pighati
##sumahim
##village
reresulta
##Ehiptong
##Helsinki
##Maruekos
##Pagsapit
##nagsipag
##nakiusap
##tsismoso
##maginhawa
##metrikong
##pagpiling
##terorista
##tumatanda
##Dasmarinas
##helikopter
##pagtatangi
##pundasyong
##teleskopyo
##Nakatatanda
##labindalawa
##sinusubukang
##istreptokokus
##panghihimagsik
##pagkakabilanggo
##pinagtatalunang
gs
fly
jaz
yom
##Cl
##mg
arag
ikro
lans
##Abe
##Dob
##Fur
adang
silim
##Nika
aliwan
tingan
##Kevin
##Lebes
##artic
##gansa
yernong
##Archae
##Caicos
##Claver
##Gordon
##Hunter
##Kapang
##Lonate
##Mainam
##Missis
##Mizuno
##Naisip
##botika
##buklod
##giyera
##ground
##kinahi
##koment
##minana
raksiyon
##Bolshev
##Esteban
##Legarda
##aanyaya
##communi
##develop
##inhibit
##magbaba
##nakapin
##ngalang
##subatom
##Lebesgue
##Nakatala
##binisita
##napupuno
##paggugol
##pingkian
##terapiya
##maaasahan
##magpatuli
##nangasiwa
##pagniniig
##pangwakas
##pinayuhan
##prinsipal
##naglalahad
##nagsasalin
##magsasagawa
##Championship
##Repormasyong
##mananalaysay
##nagbibinatang
##politeistikong
##espesyalisasyon
##nakapipinsalang
sei
##09
##NS
bbia
eblo
nara
racy
yoku
##118
##Cuv
##Duk
##Ely
##Kun
##tau
binsi
cient
nante
omboy
tokol
unsyo
##Bour
##CPSU
##Esau
##Ishi
##Mone
##Yoko
##anus
agahan
liance
linyar
ulated
uterte
waheng
##Bacon
##Dalma
##Meron
##Nietz
##Veneg
##polic
##recei
##sibat
borough
lomagno
yamento
##Cirilo
##Leonor
##Square
##itakda
##napuna
##putahe
##resour
##sagana
##sekond
sasagawa
strasyon
##Duterte
##Herbert
##Houston
##Madyaas
##Ricardo
##Trohano
##Arabyang
##Nagbalik
##Nanatili
##Nintendo
##Thousand
##Venegono
##finalist
##karerang
##manghang
##mapadali
##nagkalat
##pinagded
##rebisyon
##Manchuria
##Carlomagno
##Kyrgyzstan
##naglalapat
##magkahalong
##intensiyonal
##arkeolohiyang
##reproduktibong
05
Ac
lm
eber
edor
##Miy
##Ory
##cra
baril
sesto
##mmHg
##pask
ilahan
sipika
tomiya
uliano
upaang
##1920.
##Hills
##Katan
##heart
##hypot
##isini
##kalis
##liboy
##patyo
##sangg
##tagpo
issance
##Louvre
##Remedi
##Review
##Sloven
##concer
##immune
##rights
##Polines
##praktis
lalawigan
##Michigan
##Panlulan
##bangkong
##domestic
##estetika
##henerong
##kasapian
##maaagang
##Artemisia
##amphibian
##inihandog
##matutunan
##nakahanda
##pagkaalam
##pagkapapa
##pinsalang
##pluwidong
##Nakapagpap
##maipahayag
##mapagbigay
##paglalahat
[...]
